{
  "version": "1.0",
  "truncation": null,
  "padding": null,
  "added_tokens": [
    {
      "id": 0,
      "content": "<PAD>",
      "single_word": false,
      "lstrip": false,
      "rstrip": false,
      "normalized": false,
      "special": true
    },
    {
      "id": 1,
      "content": "<BOS>",
      "single_word": false,
      "lstrip": false,
      "rstrip": false,
      "normalized": false,
      "special": true
    },
    {
      "id": 2,
      "content": "<EOS>",
      "single_word": false,
      "lstrip": false,
      "rstrip": false,
      "normalized": false,
      "special": true
    },
    {
      "id": 3,
      "content": "<UNK>",
      "single_word": false,
      "lstrip": false,
      "rstrip": false,
      "normalized": false,
      "special": true
    }
  ],
  "normalizer": null,
  "pre_tokenizer": {
    "type": "ByteLevel",
    "add_prefix_space": false,
    "trim_offsets": true,
    "use_regex": true
  },
  "post_processor": null,
  "decoder": {
    "type": "ByteLevel",
    "add_prefix_space": true,
    "trim_offsets": true,
    "use_regex": true
  },
  "model": {
    "type": "BPE",
    "dropout": null,
    "unk_token": "<UNK>",
    "continuing_subword_prefix": null,
    "end_of_word_suffix": null,
    "fuse_unk": false,
    "byte_fallback": false,
    "ignore_merges": false,
    "vocab": {
      "<PAD>": 0,
      "<BOS>": 1,
      "<EOS>": 2,
      "<UNK>": 3,
      "!": 4,
      "\"": 5,
      "#": 6,
      "$": 7,
      "%": 8,
      "&": 9,
      "'": 10,
      "(": 11,
      ")": 12,
      "*": 13,
      "+": 14,
      ",": 15,
      "-": 16,
      ".": 17,
      "/": 18,
      "0": 19,
      "1": 20,
      "2": 21,
      "3": 22,
      "4": 23,
      "5": 24,
      "6": 25,
      "7": 26,
      "8": 27,
      "9": 28,
      ":": 29,
      ";": 30,
      "<": 31,
      "=": 32,
      ">": 33,
      "?": 34,
      "@": 35,
      "A": 36,
      "B": 37,
      "C": 38,
      "D": 39,
      "E": 40,
      "F": 41,
      "G": 42,
      "H": 43,
      "I": 44,
      "J": 45,
      "K": 46,
      "L": 47,
      "M": 48,
      "N": 49,
      "O": 50,
      "P": 51,
      "Q": 52,
      "R": 53,
      "S": 54,
      "T": 55,
      "U": 56,
      "V": 57,
      "W": 58,
      "X": 59,
      "Y": 60,
      "Z": 61,
      "[": 62,
      "\\": 63,
      "]": 64,
      "^": 65,
      "_": 66,
      "`": 67,
      "a": 68,
      "b": 69,
      "c": 70,
      "d": 71,
      "e": 72,
      "f": 73,
      "g": 74,
      "h": 75,
      "i": 76,
      "j": 77,
      "k": 78,
      "l": 79,
      "m": 80,
      "n": 81,
      "o": 82,
      "p": 83,
      "q": 84,
      "r": 85,
      "s": 86,
      "t": 87,
      "u": 88,
      "v": 89,
      "w": 90,
      "x": 91,
      "y": 92,
      "z": 93,
      "{": 94,
      "|": 95,
      "}": 96,
      "~": 97,
      "¡": 98,
      "¢": 99,
      "£": 100,
      "¤": 101,
      "¥": 102,
      "¦": 103,
      "§": 104,
      "¨": 105,
      "©": 106,
      "ª": 107,
      "«": 108,
      "¬": 109,
      "®": 110,
      "¯": 111,
      "°": 112,
      "±": 113,
      "²": 114,
      "³": 115,
      "´": 116,
      "µ": 117,
      "¶": 118,
      "·": 119,
      "¸": 120,
      "¹": 121,
      "º": 122,
      "»": 123,
      "¼": 124,
      "½": 125,
      "¾": 126,
      "¿": 127,
      "À": 128,
      "Á": 129,
      "Â": 130,
      "Ã": 131,
      "Ä": 132,
      "Å": 133,
      "Æ": 134,
      "Ç": 135,
      "È": 136,
      "É": 137,
      "Ê": 138,
      "Ë": 139,
      "Ì": 140,
      "Í": 141,
      "Î": 142,
      "Ï": 143,
      "Ð": 144,
      "Ñ": 145,
      "Ò": 146,
      "Ó": 147,
      "Ô": 148,
      "Õ": 149,
      "Ö": 150,
      "×": 151,
      "Ø": 152,
      "Ù": 153,
      "Ú": 154,
      "Û": 155,
      "Ü": 156,
      "Ý": 157,
      "Þ": 158,
      "ß": 159,
      "à": 160,
      "á": 161,
      "â": 162,
      "ã": 163,
      "ä": 164,
      "å": 165,
      "æ": 166,
      "ç": 167,
      "è": 168,
      "é": 169,
      "ê": 170,
      "ë": 171,
      "ì": 172,
      "í": 173,
      "î": 174,
      "ï": 175,
      "ð": 176,
      "ñ": 177,
      "ò": 178,
      "ó": 179,
      "ô": 180,
      "õ": 181,
      "ö": 182,
      "÷": 183,
      "ø": 184,
      "ù": 185,
      "ú": 186,
      "û": 187,
      "ü": 188,
      "ý": 189,
      "þ": 190,
      "ÿ": 191,
      "Ā": 192,
      "ā": 193,
      "Ă": 194,
      "ă": 195,
      "Ą": 196,
      "ą": 197,
      "Ć": 198,
      "ć": 199,
      "Ĉ": 200,
      "ĉ": 201,
      "Ċ": 202,
      "ċ": 203,
      "Č": 204,
      "č": 205,
      "Ď": 206,
      "ď": 207,
      "Đ": 208,
      "đ": 209,
      "Ē": 210,
      "ē": 211,
      "Ĕ": 212,
      "ĕ": 213,
      "Ė": 214,
      "ė": 215,
      "Ę": 216,
      "ę": 217,
      "Ě": 218,
      "ě": 219,
      "Ĝ": 220,
      "ĝ": 221,
      "Ğ": 222,
      "ğ": 223,
      "Ġ": 224,
      "ġ": 225,
      "Ģ": 226,
      "ģ": 227,
      "Ĥ": 228,
      "ĥ": 229,
      "Ħ": 230,
      "ħ": 231,
      "Ĩ": 232,
      "ĩ": 233,
      "Ī": 234,
      "ī": 235,
      "Ĭ": 236,
      "ĭ": 237,
      "Į": 238,
      "į": 239,
      "İ": 240,
      "ı": 241,
      "Ĳ": 242,
      "ĳ": 243,
      "Ĵ": 244,
      "ĵ": 245,
      "Ķ": 246,
      "ķ": 247,
      "ĸ": 248,
      "Ĺ": 249,
      "ĺ": 250,
      "Ļ": 251,
      "ļ": 252,
      "Ľ": 253,
      "ľ": 254,
      "Ŀ": 255,
      "ŀ": 256,
      "Ł": 257,
      "ł": 258,
      "Ń": 259,
      "he": 260,
      "Ġt": 261,
      "Ġa": 262,
      "Ġs": 263,
      "Ġw": 264,
      "nd": 265,
      "Ġthe": 266,
      "ed": 267,
      "Ġand": 268,
      "Ġto": 269,
      "Ġb": 270,
      "in": 271,
      "Ġh": 272,
      "Ġwa": 273,
      "re": 274,
      "Ġf": 275,
      "ou": 276,
      "it": 277,
      "Ġl": 278,
      "Ġc": 279,
      "er": 280,
      "Ġd": 281,
      "Ġhe": 282,
      "Ġwas": 283,
      "Ġm": 284,
      "Ġp": 285,
      "om": 286,
      "ĠT": 287,
      "Ġo": 288,
      "ay": 289,
      "ar": 290,
      "ing": 291,
      "is": 292,
      "Ġg": 293,
      "il": 294,
      "id": 295,
      "at": 296,
      "en": 297,
      "Ġn": 298,
      "Ġsa": 299,
      "Ġha": 300,
      "ĠS": 301,
      "ĠThe": 302,
      "an": 303,
      "im": 304,
      "or": 305,
      "on": 306,
      "Ġit": 307,
      "Ġth": 308,
      "ll": 309,
      "le": 310,
      "ĠH": 311,
      "Ġher": 312,
      "et": 313,
      "ot": 314,
      "ir": 315,
      "ĠShe": 316,
      "ĠHe": 317,
      "es": 318,
      "ver": 319,
      "Ġin": 320,
      "ut": 321,
      "ow": 322,
      "ck": 323,
      "Ġe": 324,
      "ĠThey": 325,
      "Ġu": 326,
      "ld": 327,
      "oo": 328,
      "ig": 329,
      "Ġy": 330,
      "Ġsaid": 331,
      "Ġr": 332,
      "Ġbe": 333,
      "ily": 334,
      "am": 335,
      "Ġst": 336,
      "ce": 337,
      "Ġshe": 338,
      "Ġ\"": 339,
      "pp": 340,
      "ke": 341,
      "ĠI": 342,
      "ith": 343,
      "ve": 344,
      "On": 345,
      "Ġwith": 346,
      "Ġof": 347,
      "Lily": 348,
      "Ġon": 349,
      "Ġso": 350,
      "ked": 351,
      "ri": 352,
      "Ġhis": 353,
      "nt": 354,
      "Ġpl": 355,
      "very": 356,
      "Ġyou": 357,
      "ad": 358,
      "Ġday": 359,
      "Ġthat": 360,
      "Ġup": 361,
      "Ġhad": 362,
      "st": 363,
      "Ġplay": 364,
      "Ġthey": 365,
      "el": 366,
      "ĠLily": 367,
      "Ġmom": 368,
      "Ġfor": 369,
      "Ġwe": 370,
      "ould": 371,
      "un": 372,
      "my": 373,
      "ĠB": 374,
      "The": 375,
      "'s": 376,
      "Ġhapp": 377,
      "ent": 378,
      "ch": 379,
      "itt": 380,
      "Ġli": 381,
      "Ġwant": 382,
      "out": 383,
      "Ġsh": 384,
      "her": 385,
      "ly": 386,
      "Ġvery": 387,
      "ound": 388,
      "ime": 389,
      "ome": 390,
      "se": 391,
      "ittle": 392,
      "all": 393,
      "Ġdo": 394,
      "end": 395,
      "Ġtime": 396,
      "Ġwh": 397,
      "Ġnot": 398,
      "Ġlittle": 399,
      "Ġthere": 400,
      "Ġk": 401,
      "al": 402,
      "ht": 403,
      "Ġne": 404,
      "Ġhappy": 405,
      "Ġre": 406,
      "Ġbig": 407,
      "ĠM": 408,
      "ĠĊ": 409,
      "Ġsm": 410,
      "Ġbut": 411,
      "ĠIt": 412,
      "ack": 413,
      "Ġsaw": 414,
      "Ġan": 415,
      "riend": 416,
      "Ġfriend": 417,
      "Ġis": 418,
      "ra": 419,
      "Ġas": 420,
      "ry": 421,
      "One": 422,
      "ide": 423,
      ".\"": 424,
      "ake": 425,
      "'t": 426,
      "ved": 427,
      "Once": 428,
      "ug": 429,
      "ter": 430,
      "Ġloo": 431,
      "Ġwere": 432,
      "ore": 433,
      "ec": 434,
      "Ġlo": 435,
      "!\"": 436,
      "Ġhim": 437,
      "Ġbo": 438,
      "Ġtoo": 439,
      "Ġgo": 440,
      "irl": 441,
      "Ġse": 442,
      "ĠTim": 443,
      "Ġupon": 444,
      "Ġgirl": 445,
      "Ġwanted": 446,
      "Ġj": 447,
      "ard": 448,
      "ill": 449,
      "Ġout": 450,
      "Ġsp": 451,
      "way": 452,
      "Ġthem": 453,
      "fu": 454,
      "Ġat": 455,
      "Ġcould": 456,
      "ind": 457,
      "ur": 458,
      "Ġare": 459,
      "hen": 460,
      "ĠA": 461,
      "Ġdid": 462,
      "Ġtheir": 463,
      "Ġsmil": 464,
      "ain": 465,
      "Ġex": 466,
      "hed": 467,
      "art": 468,
      "Ġhave": 469,
      "Ġwent": 470,
      "Ġar": 471,
      "rom": 472,
      "ic": 473,
      "ĠJ": 474,
      "hing": 475,
      "ful": 476,
      "Ġall": 477,
      "lp": 478,
      "Ġnam": 479,
      "Ġfriends": 480,
      "ight": 481,
      "Ġkn": 482,
      "Ġcan": 483,
      "ood": 484,
      "Ġhelp": 485,
      "um": 486,
      "one": 487,
      "ark": 488,
      "Ġback": 489,
      "ĠBen": 490,
      "?\"": 491,
      "Ġcl": 492,
      "Ġfun": 493,
      "are": 494,
      "Ġle": 495,
      "Ġno": 496,
      "Ġnamed": 497,
      "Ġsay": 498,
      "ĠTom": 499,
      "Ġsc": 500,
      "oug": 501,
      "Ġloved": 502,
      "op": 503,
      "Ġal": 504,
      "You": 505,
      "elt": 506,
      "side": 507,
      "ĠOne": 508,
      "Ġsmiled": 509,
      "ick": 510,
      "Ġfelt": 511,
      "Ġman": 512,
      "Ġaround": 513,
      "Ġasked": 514,
      "Ġfe": 515,
      "Ġtoy": 516,
      "ĠTimmy": 517,
      "ame": 518,
      "Ġlooked": 519,
      "omet": 520,
      "Ġlike": 521,
      "Ġsome": 522,
      "Ġsee": 523,
      "ure": 524,
      "Ġro": 525,
      "Ġwould": 526,
      "Ġboy": 527,
      "Ġbr": 528,
      "get": 529,
      "Ġbir": 530,
      "ĠW": 531,
      "Ġme": 532,
      "Ġstart": 533,
      "ong": 534,
      "ice": 535,
      "Ġsomet": 536,
      "ss": 537,
      "Ġbird": 538,
      "ade": 539,
      "Ġfa": 540,
      "Ġwor": 541,
      "Ġag": 542,
      "ings": 543,
      "dd": 544,
      "king": 545,
      "Ġwhat": 546,
      "Ġtre": 547,
      "Ã¢": 548,
      "âĤ": 549,
      "âĤ¬": 550,
      "gether": 551,
      "Ġaway": 552,
      "own": 553,
      "Ġmake": 554,
      "Ġstarted": 555,
      "ĠBut": 556,
      "ie": 557,
      "Ġran": 558,
      "ag": 559,
      "ared": 560,
      "oud": 561,
      "Ġmade": 562,
      "Ġsomething": 563,
      "ited": 564,
      "if": 565,
      "Ġtogether": 566,
      ",\"": 567,
      "Ġco": 568,
      "Ġpark": 569,
      "ther": 570,
      "Ġexc": 571,
      "Ġcar": 572,
      "ĠYou": 573,
      "Ġsad": 574,
      "Ġother": 575,
      "Ġfrom": 576,
      "Ġput": 577,
      "Ġnew": 578,
      "ble": 579,
      "Ġpr": 580,
      "Ġsays": 581,
      "Ġla": 582,
      "Ġhome": 583,
      "Ġagain": 584,
      "Ġmu": 585,
      "Ġwhen": 586,
      "Ġhug": 587,
      "ell": 588,
      "Ġthen": 589,
      "Ġdec": 590,
      "Ġwho": 591,
      "est": 592,
      "ep": 593,
      "ĠL": 594,
      "Ġfound": 595,
      "ach": 596,
      "ried": 597,
      "pped": 598,
      "Ġch": 599,
      "Ġgood": 600,
      "ook": 601,
      "Ġfl": 602,
      "ĠE": 603,
      "as": 604,
      "Ġwal": 605,
      "qu": 606,
      "Ġget": 607,
      "ought": 608,
      "ally": 609,
      "Ġplaying": 610,
      "pl": 611,
      "Ġexcited": 612,
      "Ġsw": 613,
      "Ġthings": 614,
      "hat": 615,
      "Ġgot": 616,
      "ous": 617,
      "ided": 618,
      "Ġdecided": 619,
      "uck": 620,
      "Ġevery": 621,
      "Ġliked": 622,
      "ro": 623,
      "ave": 624,
      "Ġcame": 625,
      "ny": 626,
      "Ġbl": 627,
      "ax": 628,
      "Ġone": 629,
      "Ġdown": 630,
      "Ġbec": 631,
      "Ġscared": 632,
      "ouse": 633,
      "ust": 634,
      "Ġv": 635,
      "Ġfind": 636,
      "Ġthan": 637,
      "na": 638,
      "Ġcare": 639,
      "Ġfeel": 640,
      "Ġyour": 641,
      "ĠD": 642,
      "ara": 643,
      "udd": 644,
      "ist": 645,
      "Ġdog": 646,
      "Ġab": 647,
      "Ġdad": 648,
      "ways": 649,
      "Ġke": 650,
      "ĠMom": 651,
      "Ġdidn": 652,
      "Ġalways": 653,
      "ue": 654,
      "Ġgra": 655,
      "ap": 656,
      "Ġgr": 657,
      "arn": 658,
      "fe": 659,
      "us": 660,
      "Ġmommy": 661,
      "Ġtook": 662,
      "our": 663,
      "ĠF": 664,
      "Ġlot": 665,
      "ess": 666,
      "Ġkne": 667,
      "ant": 668,
      "ers": 669,
      "Ġabout": 670,
      "eci": 671,
      "nder": 672,
      "Ġpo": 673,
      "They": 674,
      "Ġmy": 675,
      "Ġlook": 676,
      "Ġoutside": 677,
      "bb": 678,
      "Ġtree": 679,
      "nna": 680,
      "ched": 681,
      "Ġwill": 682,
      "Ġthought": 683,
      "ise": 684,
      "ened": 685,
      "Ġball": 686,
      "Ġtoys": 687,
      "ite": 688,
      "ĠSam": 689,
      "Ġint": 690,
      "ecial": 691,
      "Ġspecial": 692,
      "Ġold": 693,
      "Ġta": 694,
      "Ġmore": 695,
      "Ġlearn": 696,
      "Ġknow": 697,
      "ret": 698,
      "Ġho": 699,
      "Ġknew": 700,
      "Ġtake": 701,
      "ged": 702,
      "Ġlaug": 703,
      "udden": 704,
      "Ġpe": 705,
      "fter": 706,
      "ĠMax": 707,
      "Ġcat": 708,
      "ive": 709,
      "Ġany": 710,
      "uddenly": 711,
      "Ġhow": 712,
      "Ġtr": 713,
      "ma": 714,
      "au": 715,
      "Ġsor": 716,
      "Ġmuch": 717,
      "Ġshow": 718,
      "ia": 719,
      "Ġtw": 720,
      "ish": 721,
      "ven": 722,
      "Ġsl": 723,
      "Ġhouse": 724,
      "But": 725,
      "and": 726,
      "ink": 727,
      "Ġsk": 728,
      "Ġrun": 729,
      "Ġmo": 730,
      "Ġop": 731,
      "Ġinto": 732,
      "Ġsun": 733,
      "ĠEvery": 734,
      "Ġclo": 735,
      "Ġtried": 736,
      "Ġhand": 737,
      "Ġinside": 738,
      "Ġcouldn": 739,
      "Ġtold": 740,
      "Ġproud": 741,
      "Ġen": 742,
      "Ġqu": 743,
      "Ġnever": 744,
      "Ġsorry": 745,
      "Ġgave": 746,
      "Ġwater": 747,
      "Ġor": 748,
      "Ġover": 749,
      "ump": 750,
      "ate": 751,
      "ause": 752,
      "Ġif": 753,
      "ace": 754,
      "by": 755,
      "Ġexpl": 756,
      "Ġheard": 757,
      "ank": 758,
      "Ġeat": 759,
      "ty": 760,
      "other": 761,
      "ion": 762,
      "ge": 763,
      "Ġplayed": 764,
      "dy": 765,
      "Ġroom": 766,
      "Ġthis": 767,
      "etter": 768,
      "Ġpick": 769,
      "Ġeach": 770,
      "Ġstr": 771,
      "Ġgre": 772,
      "here": 773,
      "Ġbecause": 774,
      "ĠSara": 775,
      "Ġpret": 776,
      "Ġjust": 777,
      "Tom": 778,
      "Ġwat": 779,
      "ĠWe": 780,
      "Ġcom": 781,
      "oth": 782,
      "Ġhugged": 783,
      "Ġoff": 784,
      "ak": 785,
      "Ġbox": 786,
      "ile": 787,
      "Ġneed": 788,
      "iz": 789,
      "Ġnice": 790,
      "Ġsmall": 791,
      "Ġlong": 792,
      "Ġjo": 793,
      "Ġbu": 794,
      "ĠAnna": 795,
      "Mom": 796,
      "Ġunt": 797,
      "ough": 798,
      "Ġmany": 799,
      "ort": 800,
      "ving": 801,
      "uc": 802,
      "Ġfo": 803,
      "Ġbear": 804,
      "Ġuntil": 805,
      "ĠJack": 806,
      "sel": 807,
      "ine": 808,
      "imal": 809,
      "Ġanimal": 810,
      "Ġtry": 811,
      "ild": 812,
      "'m": 813,
      "sed": 814,
      "Ġlearned": 815,
      "gry": 816,
      "Ġend": 817,
      "Ġbetter": 818,
      "Ġim": 819,
      "em": 820,
      "Ġcall": 821,
      "urt": 822,
      "Ġkind": 823,
      "Ġad": 824,
      "ft": 825,
      "vent": 826,
      "aut": 827,
      "ĠJo": 828,
      "Ġflow": 829,
      "He": 830,
      "Ġdre": 831,
      "ĠSo": 832,
      "Ġlove": 833,
      "urn": 834,
      "ull": 835,
      "Ġcle": 836,
      "ars": 837,
      "Ġbest": 838,
      "pt": 839,
      "ber": 840,
      "ady": 841,
      "Ġthanked": 842,
      "Ġeven": 843,
      "urp": 844,
      "Ġbeaut": 845,
      "Ġsky": 846,
      "Ġbra": 847,
      "arden": 848,
      "Ġgarden": 849,
      "Ġsn": 850,
      "lly": 851,
      "ĠAnd": 852,
      "Ġfast": 853,
      "ves": 854,
      "ĠHer": 855,
      "Ġcareful": 856,
      "Ġlaughed": 857,
      "Ġlots": 858,
      "self": 859,
      "Ġby": 860,
      "Ġfi": 861,
      "Ġche": 862,
      "lew": 863,
      "ĠMia": 864,
      "Ġjump": 865,
      "Ġdon": 866,
      "iny": 867,
      "Ġfam": 868,
      "Yes": 869,
      "Ġloud": 870,
      "Ġbeauti": 871,
      "Ġway": 872,
      "Ġbeautiful": 873,
      "wn": 874,
      "Ġte": 875,
      "Ġgl": 876,
      "ies": 877,
      "ĠC": 878,
      "Ġstill": 879,
      "Th": 880,
      "Ġra": 881,
      "ĠThen": 882,
      "Ġcome": 883,
      "Ġhard": 884,
      "Åĵ": 885,
      "Ġwo": 886,
      "ĠFrom": 887,
      "hn": 888,
      "ase": 889,
      "Ġlist": 890,
      "Ġstay": 891,
      "Ġanimals": 892,
      "ĠHis": 893,
      "ect": 894,
      "It": 895,
      "ning": 896,
      "Ġhurt": 897,
      "Ġsafe": 898,
      "Ġunder": 899,
      "ast": 900,
      "Ġrem": 901,
      "Ġcol": 902,
      "ct": 903,
      "hes": 904,
      "Ġboth": 905,
      "Ġlived": 906,
      "Ġtwo": 907,
      "Ġcu": 908,
      "ool": 909,
      "ople": 910,
      "ree": 911,
      "ane": 912,
      "Ġfamily": 913,
      "Ġbrave": 914,
      "Ġimp": 915,
      "ĠÃ¢": 916,
      "Ġits": 917,
      "Ġlet": 918,
      "Ġfin": 919,
      "When": 920,
      "Ġflew": 921,
      "Ġbad": 922,
      "ished": 923,
      "ob": 924,
      "Ġkept": 925,
      "urpr": 926,
      "ucy": 927,
      "Tim": 928,
      "Ġpeople": 929,
      "Ġwalked": 930,
      "igh": 931,
      "Ġstor": 932,
      "Ġsurpr": 933,
      "Ġcalled": 934,
      "Ġbook": 935,
      "ĠWhen": 936,
      "fore": 937,
      "be": 938,
      "Ġsoon": 939,
      "led": 940,
      "Ġred": 941,
      "kay": 942,
      "Ġfore": 943,
      "Ġdan": 944,
      "Ġfly": 945,
      "xt": 946,
      "Ġshould": 947,
      "ock": 948,
      "ised": 949,
      "Ġrock": 950,
      "Ġpic": 951,
      "Ġangry": 952,
      "Ġgoing": 953,
      "Ġshare": 954,
      "Ġclean": 955,
      "ĠP": 956,
      "Ġadvent": 957,
      "ummy": 958,
      "Ġopened": 959,
      "Ġexplore": 960,
      "Ġkeep": 961,
      "No": 962,
      "ip": 963,
      "Let": 964,
      "Ġnow": 965,
      "illy": 966,
      "Ġbefore": 967,
      "Ġpretty": 968,
      "âĤ¬â": 969,
      "Ġcon": 970,
      "Ġdoor": 971,
      "Ġcre": 972,
      "Ġwind": 973,
      "Ġdoll": 974,
      "ary": 975,
      "Ġsto": 976,
      "Ġshiny": 977,
      "Ġground": 978,
      "Ġreal": 979,
      "age": 980,
      "Ġdra": 981,
      "Ġnoise": 982,
      "Ġide": 983,
      "dded": 984,
      "Ġfar": 985,
      "Ġfr": 986,
      "ied": 987,
      "Ġturn": 988,
      "Ġfeeling": 989,
      "Ġcry": 990,
      "Ġey": 991,
      "oon": 992,
      "Ġwar": 993,
      "oy": 994,
      "Ġidea": 995,
      "Ġcolor": 996,
      "thing": 997,
      "les": 998,
      "Ġun": 999,
      "Ġnext": 1000,
      "Ġpicked": 1001,
      "Ġwalking": 1002,
      "th": 1003,
      "so": 1004,
      "Ġwhile": 1005,
      "Ħ¢": 1006,
      "âĤ¬âĦ¢": 1007,
      "imb": 1008,
      "Ben": 1009,
      "ĠLucy": 1010,
      "Ġthr": 1011,
      "Ġsmile": 1012,
      "Ġma": 1013,
      "Ġadventure": 1014,
      "Ġclimb": 1015,
      "Ġalso": 1016,
      "iced": 1017,
      "Ġbed": 1018,
      "uch": 1019,
      "ture": 1020,
      "What": 1021,
      "ger": 1022,
      "ious": 1023,
      "That": 1024,
      "eet": 1025,
      "joy": 1026,
      "ff": 1027,
      "Ġbeing": 1028,
      "ted": 1029,
      "Ġwr": 1030,
      "ac": 1031,
      "Ġclos": 1032,
      "Ġnodded": 1033,
      "Ġlooking": 1034,
      "Ġstopped": 1035,
      "Ġdel": 1036,
      "Ġhas": 1037,
      "kes": 1038,
      "Ġdif": 1039,
      "Ġpicture": 1040,
      "Ġgive": 1041,
      "ember": 1042,
      "ting": 1043,
      "Ġfood": 1044,
      "ĠDad": 1045,
      "Ġtruck": 1046,
      "ĠSuddenly": 1047,
      "Ġwait": 1048,
      "ĠG": 1049,
      "Ġeyes": 1050,
      "ught": 1051,
      "Ġever": 1052,
      "Ġenjoy": 1053,
      "Ġnoticed": 1054,
      "Ġown": 1055,
      "Ġquick": 1056,
      "Ġafter": 1057,
      "Ġgreat": 1058,
      "able": 1059,
      "maz": 1060,
      "Thank": 1061,
      "Ġamaz": 1062,
      "aybe": 1063,
      "ized": 1064,
      "Ġbre": 1065,
      "Ġremember": 1066,
      "Ġwalk": 1067,
      "Suddenly": 1068,
      "Ġthink": 1069,
      "Ġtow": 1070,
      "Ġrain": 1071,
      "Ġlisten": 1072,
      "Ġrepl": 1073,
      "Ġdis": 1074,
      "Ġeveryone": 1075,
      "Ġblue": 1076,
      "Ġforest": 1077,
      "Ġvo": 1078,
      "Ġbro": 1079,
      "Ġfish": 1080,
      "Ġapp": 1081,
      "irst": 1082,
      "ĠSp": 1083,
      "Ġimport": 1084,
      "Ġhands": 1085,
      "bbit": 1086,
      "Ġflowers": 1087,
      "Ġshowed": 1088,
      "gan": 1089,
      "Ġnear": 1090,
      "She": 1091,
      "Ġstrong": 1092,
      "Ġac": 1093,
      "Ġwork": 1094,
      "Ġde": 1095,
      "Ġwonder": 1096,
      "Ġslide": 1097,
      "Ġbright": 1098,
      "Ġimportant": 1099,
      "bbed": 1100,
      "bye": 1101,
      "Ġwatch": 1102,
      "llow": 1103,
      "Ġquickly": 1104,
      "Ġshout": 1105,
      "Ġrabbit": 1106,
      "Ġhead": 1107,
      "Ġwatched": 1108,
      "Ġright": 1109,
      "Ġstore": 1110,
      "Ġsound": 1111,
      "Ġreplied": 1112,
      "Ġtal": 1113,
      "fere": 1114,
      "day": 1115,
      "Ġus": 1116,
      "Ġmean": 1117,
      "Ġdiffere": 1118,
      "Ġsqu": 1119,
      "Ġsure": 1120,
      "Ġye": 1121,
      "ered": 1122,
      "So": 1123,
      "Ġplace": 1124,
      "Ġuse": 1125,
      "Ġboat": 1126,
      "Ġwhere": 1127,
      "Ġmor": 1128,
      "ange": 1129,
      "Ġbeen": 1130,
      "Ġfollow": 1131,
      "ath": 1132,
      "Ġdress": 1133,
      "Ġstick": 1134,
      "ĠBob": 1135,
      "Ġokay": 1136,
      "Ġbecame": 1137,
      "Ġtra": 1138,
      "Ġgoodbye": 1139,
      "Ġchild": 1140,
      "lease": 1141,
      "ng": 1142,
      "Ġask": 1143,
      "ĠN": 1144,
      "Ġyell": 1145,
      "Ġcloser": 1146,
      "Ġface": 1147,
      "Ġmag": 1148,
      "Ġhigh": 1149,
      "Ġdifferent": 1150,
      "Ġwarm": 1151,
      "We": 1152,
      "Ġcuri": 1153,
      "Ġvoice": 1154,
      "co": 1155,
      "aught": 1156,
      "Ġcr": 1157,
      "ached": 1158,
      "Ġnight": 1159,
      "Ġforg": 1160,
      "ĠR": 1161,
      "Ġhop": 1162,
      "Ġbel": 1163,
      "Ġour": 1164,
      "ĠSpot": 1165,
      "ired": 1166,
      "leep": 1167,
      "ĠMommy": 1168,
      "Jo": 1169,
      "ĠSue": 1170,
      "Ġtell": 1171,
      "ount": 1172,
      "Ġcurious": 1173,
      "Ġpa": 1174,
      "more": 1175,
      "Ġanymore": 1176,
      "Ġcook": 1177,
      "Ġdoes": 1178,
      "Ġpu": 1179,
      "Ġcake": 1180,
      "Ġthree": 1181,
      "ndma": 1182,
      "Look": 1183,
      "Ġfav": 1184,
      "Ġopen": 1185,
      "itc": 1186,
      "Ġgrabbed": 1187,
      "ĠJohn": 1188,
      "Anna": 1189,
      "Ġfirst": 1190,
      "Sara": 1191,
      "Ġbutter": 1192,
      "Ġcont": 1193,
      "Her": 1194,
      "Ġz": 1195,
      "Ġam": 1196,
      "Ġpain": 1197,
      "imes": 1198,
      "Ġper": 1199,
      "Ġbit": 1200,
      "Ġlea": 1201,
      "Ġhelped": 1202,
      "Ġpull": 1203,
      "orn": 1204,
      "Ġba": 1205,
      "Ġbus": 1206,
      "Ġbirds": 1207,
      "ĠTh": 1208,
      "ĠEveryone": 1209,
      "Ġsweet": 1210,
      "unny": 1211,
      "Ġkid": 1212,
      "Ġfell": 1213,
      "Ġjumped": 1214,
      "After": 1215,
      "Ġhappened": 1216,
      "ila": 1217,
      "Ġonly": 1218,
      "Ġgrass": 1219,
      "isy": 1220,
      "iss": 1221,
      "ĠJane": 1222,
      "Ġmon": 1223,
      "ppy": 1224,
      "Ġbrother": 1225,
      "Ġhere": 1226,
      "itchen": 1227,
      "Ġreached": 1228,
      "Ġkitchen": 1229,
      "Ġsand": 1230,
      "Ġsing": 1231,
      "Ġglad": 1232,
      "Ġflo": 1233,
      "Ġrealized": 1234,
      "Can": 1235,
      "Ġblock": 1236,
      "Ġstory": 1237,
      "nts": 1238,
      "Ġfire": 1239,
      "ĠAs": 1240,
      "Ġru": 1241,
      "Ġdr": 1242,
      "Ġstop": 1243,
      "Ġthrough": 1244,
      "Ġrest": 1245,
      "Ġhaving": 1246,
      "ĠSarah": 1247,
      "Ġate": 1248,
      "Ġyummy": 1249,
      "Ġbeh": 1250,
      "zy": 1251,
      "Ġbegan": 1252,
      "Ġmum": 1253,
      "Ġready": 1254,
      "Ġsees": 1255,
      "where": 1256,
      "Ġreally": 1257,
      "ater": 1258,
      "Ġgame": 1259,
      "Ġtri": 1260,
      "Ġpare": 1261,
      "Ġhimself": 1262,
      "Ġprin": 1263,
      "Ġmess": 1264,
      "Ġsoft": 1265,
      "Ġdraw": 1266,
      "fully": 1267,
      "Ġless": 1268,
      "Ġworld": 1269,
      "Ġshouted": 1270,
      "ather": 1271,
      "Ġtired": 1272,
      "Ġmagic": 1273,
      "Ġunderst": 1274,
      "Ġlady": 1275,
      "olly": 1276,
      "Ġdone": 1277,
      "Ġfavor": 1278,
      "ins": 1279,
      "ĠLet": 1280,
      "Ġthing": 1281,
      "ster": 1282,
      "Ġfavorite": 1283,
      "Ġfill": 1284,
      "Ġmaking": 1285,
      "Ġseen": 1286,
      "Ġwaved": 1287,
      "uff": 1288,
      "Ġused": 1289,
      "Ġfix": 1290,
      "'re": 1291,
      "sh": 1292,
      "Ġhat": 1293,
      "Ġcoming": 1294,
      "ken": 1295,
      "Ġcut": 1296,
      "Ġste": 1297,
      "Ġbutterf": 1298,
      "Ġpond": 1299,
      "Ġtast": 1300,
      "Ġkids": 1301,
      "ĠJoe": 1302,
      "Ġbunny": 1303,
      "Ġdelic": 1304,
      "Ġworry": 1305,
      "Mommy": 1306,
      "Ġtop": 1307,
      "Ġparents": 1308,
      "Ġpart": 1309,
      "Ġduck": 1310,
      "Ġfunny": 1311,
      "Ġwhy": 1312,
      "Ġflower": 1313,
      "Ġpap": 1314,
      "bo": 1315,
      "Ġcatch": 1316,
      "ient": 1317,
      "Ġprom": 1318,
      "Ġmouse": 1319,
      "Ġname": 1320,
      "ĠDo": 1321,
      "ign": 1322,
      "John": 1323,
      "Ġpretend": 1324,
      "Ġswim": 1325,
      "mer": 1326,
      "iver": 1327,
      "air": 1328,
      "akes": 1329,
      "Ġanother": 1330,
      "rel": 1331,
      "ĠThat": 1332,
      "Ġfull": 1333,
      "Ġtouch": 1334,
      "ation": 1335,
      "As": 1336,
      "Ġpus": 1337,
      "Wow": 1338,
      "Ġcool": 1339,
      "Ġworked": 1340,
      "Timmy": 1341,
      "Ġlight": 1342,
      "aisy": 1343,
      "Ġsurprise": 1344,
      "Ġfro": 1345,
      "oney": 1346,
      "Ġlooks": 1347,
      "eddy": 1348,
      "Ġcars": 1349,
      "ĠCan": 1350,
      "Ġcried": 1351,
      "Ġgi": 1352,
      "Ġcra": 1353,
      "Ġhair": 1354,
      "Ġhopped": 1355,
      "Ġtrees": 1356,
      "Ġdro": 1357,
      "ards": 1358,
      "Ġgreen": 1359,
      "Ġspot": 1360,
      "Ġsmell": 1361,
      "Ġremembered": 1362,
      "Don": 1363,
      "Ġyears": 1364,
      "Ġdin": 1365,
      "Ġbag": 1366,
      "Ġlesson": 1367,
      "Ġrunning": 1368,
      "Ġsho": 1369,
      "Ġthank": 1370,
      "Ġ-": 1371,
      "Ġset": 1372,
      "ued": 1373,
      "ely": 1374,
      "andy": 1375,
      "hy": 1376,
      "Ġslow": 1377,
      "Ġread": 1378,
      "Ġwood": 1379,
      "Ġbehind": 1380,
      "Ġdark": 1381,
      "Ġsleep": 1382,
      "Ġhappily": 1383,
      "ssed": 1384,
      "Ġdri": 1385,
      "Ġneeded": 1386,
      "Ġwindow": 1387,
      "Ġsat": 1388,
      "Ġperf": 1389,
      "Ġcarefully": 1390,
      "Ġhold": 1391,
      "Ġfloor": 1392,
      "\".": 1393,
      "Ġyellow": 1394,
      "ĠIn": 1395,
      "Ġbow": 1396,
      "Ġcla": 1397,
      "Sam": 1398,
      "ul": 1399,
      "ren": 1400,
      "Ġfinished": 1401,
      "Ġdoing": 1402,
      "Ġwished": 1403,
      "Ġsurprised": 1404,
      "Ġcold": 1405,
      "Ġtall": 1406,
      "Ġhole": 1407,
      "aring": 1408,
      "Ġpaper": 1409,
      "ike": 1410,
      "Ġmove": 1411,
      "Ġenjoyed": 1412,
      "Ġbuy": 1413,
      "Ġheld": 1414,
      "Ġbutterfly": 1415,
      "Ġair": 1416,
      "inally": 1417,
      "Ġlost": 1418,
      "ĠAfter": 1419,
      "Ġblocks": 1420,
      "Ġlaugh": 1421,
      "uit": 1422,
      "Ġanything": 1423,
      "Ġdream": 1424,
      "Ġleft": 1425,
      "Ġice": 1426,
      "Ġarri": 1427,
      "Ġswing": 1428,
      "Ġdelicious": 1429,
      "Ġrel": 1430,
      "Ġlikes": 1431,
      "ens": 1432,
      "Ġherself": 1433,
      "Ġlion": 1434,
      "Ġfair": 1435,
      "Ġfrog": 1436,
      "ined": 1437,
      "Ġwrong": 1438,
      "Ġfollowed": 1439,
      "Ġhill": 1440,
      "Ġpre": 1441,
      "Ġchildren": 1442,
      "Ġcontin": 1443,
      "Ġhun": 1444,
      "ield": 1445,
      "Ġclose": 1446,
      "reed": 1447,
      "ream": 1448,
      "Ġfriendly": 1449,
      "Ġhid": 1450,
      "cess": 1451,
      "Ġforgot": 1452,
      "Ġhot": 1453,
      "Ġcast": 1454,
      "Ġable": 1455,
      "Ġhear": 1456,
      "Ġarrived": 1457,
      "lf": 1458,
      "Ġdir": 1459,
      "ĠSally": 1460,
      "Ġbuild": 1461,
      "Ġwonderful": 1462,
      "Ġbaby": 1463,
      "Ġfilled": 1464,
      "Ġarm": 1465,
      "Ġtight": 1466,
      "ĠBenny": 1467,
      "Ġunderstand": 1468,
      "Ġmight": 1469,
      "Ġgone": 1470,
      "asure": 1471,
      "Ġtable": 1472,
      "Ġbug": 1473,
      "Ġsnow": 1474,
      "Hell": 1475,
      "Hello": 1476,
      "Ġel": 1477,
      "Ġcreat": 1478,
      "Then": 1479,
      "Ġbooks": 1480,
      "Ġmat": 1481,
      "ds": 1482,
      "Ġelse": 1483,
      "ner": 1484,
      "Ġgent": 1485,
      "ich": 1486,
      "Ġcolors": 1487,
      "Ġcontinued": 1488,
      "Ġyes": 1489,
      "ĠEm": 1490,
      "ĠDaisy": 1491,
      "Jack": 1492,
      "irrel": 1493,
      "ey": 1494,
      "ĠNow": 1495,
      "Ġsong": 1496,
      "ross": 1497,
      "Ġstayed": 1498,
      "Ġplease": 1499,
      "Ġbroken": 1500,
      "Ġsomeone": 1501,
      "Ġleaves": 1502,
      "ĠThere": 1503,
      "av": 1504,
      "Ġwall": 1505,
      "Ġpat": 1506,
      "Ġfinally": 1507,
      "Ġenough": 1508,
      "From": 1509,
      "room": 1510,
      "Ġmorning": 1511,
      "Ġsquirrel": 1512,
      "Ġgetting": 1513,
      "Ġamazing": 1514,
      "Ġagreed": 1515,
      "Ġcount": 1516,
      "Ġvis": 1517,
      "sp": 1518,
      "Ġscary": 1519,
      "ask": 1520,
      "ash": 1521,
      "Ġbreak": 1522,
      "gon": 1523,
      "Ġpink": 1524,
      "Ġcomp": 1525,
      "Ġpoin": 1526,
      "Ġperfect": 1527,
      "'ll": 1528,
      "Ġwants": 1529,
      "Ġmoment": 1530,
      "At": 1531,
      "icy": 1532,
      "Ġcastle": 1533,
      "Ġgrandma": 1534,
      "Ġpi": 1535,
      "Ġtrying": 1536,
      "Ġfew": 1537,
      "Ġju": 1538,
      "ĠBilly": 1539,
      "row": 1540,
      "ĠLila": 1541,
      "oom": 1542,
      "Ġmar": 1543,
      "ance": 1544,
      "Ġmother": 1545,
      "Ġothers": 1546,
      "Ġturned": 1547,
      "ama": 1548,
      "Ġpuppy": 1549,
      "ries": 1550,
      "Ġdinner": 1551,
      "rot": 1552,
      "Ġhungry": 1553,
      "oup": 1554,
      "ced": 1555,
      "Ġbeach": 1556,
      "OK": 1557,
      "Ġfight": 1558,
      "Ġwasn": 1559,
      "Ġwet": 1560,
      "Ġdaddy": 1561,
      "ĠK": 1562,
      "Ġmus": 1563,
      "Ġsometimes": 1564,
      "Ġjoy": 1565,
      "Ġcream": 1566,
      "Ġmet": 1567,
      "Ġstrange": 1568,
      "Ġsail": 1569,
      "Ġclimbed": 1570,
      "ĠThis": 1571,
      "Ġroll": 1572,
      "oring": 1573,
      "ons": 1574,
      "ence": 1575,
      "Ġpictures": 1576,
      "Ġbrought": 1577,
      "red": 1578,
      "Ġfur": 1579,
      "Ġwhite": 1580,
      "Ġfall": 1581,
      "Ġlistened": 1582,
      "uffy": 1583,
      "man": 1584,
      "ee": 1585,
      "wl": 1586,
      "Ġspl": 1587,
      "Ġcookies": 1588,
      "Ġspark": 1589,
      "Ġballoon": 1590,
      "Ġclot": 1591,
      "ĠTommy": 1592,
      "Ġsear": 1593,
      "ated": 1594,
      "Ġclothes": 1595,
      "His": 1596,
      "ucky": 1597,
      "Ġeverything": 1598,
      "der": 1599,
      "ever": 1600,
      "ĠTo": 1601,
      "amp": 1602,
      "This": 1603,
      "Ġtalk": 1604,
      "ĠWhat": 1605,
      "Ġamazed": 1606,
      "Ġsmiles": 1607,
      "Ġwoods": 1608,
      "ĠMaybe": 1609,
      "Ġdeep": 1610,
      "Ġride": 1611,
      "Ġtail": 1612,
      "ĠJen": 1613,
      "Ġpol": 1614,
      "Ġthre": 1615,
      "pping": 1616,
      "Ġmakes": 1617,
      "Ġwaited": 1618,
      "Ġalone": 1619,
      "ĠGra": 1620,
      "ister": 1621,
      "eter": 1622,
      "ower": 1623,
      "os": 1624,
      "Ġsit": 1625,
      "key": 1626,
      "Ġgrow": 1627,
      "Ġpie": 1628,
      "Ġpet": 1629,
      "Ġvisit": 1630,
      "elc": 1631,
      "ctor": 1632,
      "med": 1633,
      "Ġlake": 1634,
      "Ġwon": 1635,
      "Ġdanger": 1636,
      "Ġmusic": 1637,
      "ott": 1638,
      "me": 1639,
      "Ġplan": 1640,
      "Ġtreat": 1641,
      "Ġleave": 1642,
      "zz": 1643,
      "Ġpulled": 1644,
      "Ġside": 1645,
      "Oh": 1646,
      "ope": 1647,
      "Ġsilly": 1648,
      "Ġcloud": 1649,
      "Ġland": 1650,
      "Ġfox": 1651,
      "Ġflying": 1652,
      "Ġfield": 1653,
      "ugg": 1654,
      "Ġhide": 1655,
      "Ġtowards": 1656,
      "thy": 1657,
      "ang": 1658,
      "Ġpromised": 1659,
      "Ġbelie": 1660,
      "Ġteddy": 1661,
      "Max": 1662,
      "ames": 1663,
      "ĠAmy": 1664,
      "cket": 1665,
      "Ġshared": 1666,
      "Ġsec": 1667,
      "ained": 1668,
      "Ġbigger": 1669,
      "ix": 1670,
      "orm": 1671,
      "Ġasks": 1672,
      "eces": 1673,
      "igg": 1674,
      "Ġowner": 1675,
      "Ġpieces": 1676,
      "gs": 1677,
      "ually": 1678,
      "Ġbran": 1679,
      "Ġslowly": 1680,
      "Ġworried": 1681,
      "Ġmoney": 1682,
      "ĠAll": 1683,
      "Ġcup": 1684,
      "Ġblank": 1685,
      "Ġgu": 1686,
      "iet": 1687,
      "Ġsuch": 1688,
      "Ġmoral": 1689,
      "Ġem": 1690,
      "Ġsister": 1691,
      "Ġtreasure": 1692,
      "ling": 1693,
      "Ġparty": 1694,
      "Ġmagical": 1695,
      "Ġpen": 1696,
      "Ġrace": 1697,
      "Ġnap": 1698,
      "fort": 1699,
      "cle": 1700,
      "Ġshap": 1701,
      "Ġgrate": 1702,
      "Ġblanket": 1703,
      "ises": 1704,
      "avy": 1705,
      "ased": 1706,
      "Ġfaster": 1707,
      "Ġplant": 1708,
      "Ġve": 1709,
      "Ġcolorful": 1710,
      "ze": 1711,
      "ĠJim": 1712,
      "Ġdance": 1713,
      "Ġwear": 1714,
      "Ġreach": 1715,
      "Ġmust": 1716,
      "ire": 1717,
      "sw": 1718,
      "Ġgrateful": 1719,
      "Ġriver": 1720,
      "Ġquiet": 1721,
      "Ġansw": 1722,
      "Ġthinks": 1723,
      "Ġmost": 1724,
      "unch": 1725,
      "Ġgif": 1726,
      "Ġliving": 1727,
      "ol": 1728,
      "Ġjob": 1729,
      "Maybe": 1730,
      "Ġcho": 1731,
      "Ġeverywhere": 1732,
      "less": 1733,
      "Ġsnack": 1734,
      "Ġpaint": 1735,
      "app": 1736,
      "Ġbott": 1737,
      "Ġele": 1738,
      "Okay": 1739,
      "Ġpro": 1740,
      "Ġruns": 1741,
      "Ġcandy": 1742,
      "Ġpot": 1743,
      "ph": 1744,
      "up": 1745,
      "Ġmonster": 1746,
      "Ġwelc": 1747,
      "ĠFl": 1748,
      "Ġjoin": 1749,
      "Ġdragon": 1750,
      "Ġje": 1751,
      "set": 1752,
      "Ġhelping": 1753,
      "ming": 1754,
      "outh": 1755,
      "Ġbar": 1756,
      "Ġbike": 1757,
      "Ġacross": 1758,
      "Ġfarmer": 1759,
      "Ġdolls": 1760,
      "Ġstepped": 1761,
      "Ġatt": 1762,
      "Ġmouth": 1763,
      "Ġblack": 1764,
      "bble": 1765,
      "Ġcarrot": 1766,
      "Ġtrain": 1767,
      "ipped": 1768,
      "ĠMolly": 1769,
      "Ġbroke": 1770,
      "ĠJill": 1771,
      "ere": 1772,
      "Ġprincess": 1773,
      "Ġwouldn": 1774,
      "Ġhig": 1775,
      "Ġsame": 1776,
      "ident": 1777,
      "Ġsmart": 1778,
      "Ġdangerous": 1779,
      "Ġscream": 1780,
      "Ġwin": 1781,
      "Ġdisapp": 1782,
      "Ġheal": 1783,
      "Ġspr": 1784,
      "Ġacc": 1785,
      "eared": 1786,
      "Ġheavy": 1787,
      "Ġcrying": 1788,
      "ear": 1789,
      "Ġmix": 1790,
      "ored": 1791,
      "Ġsign": 1792,
      "Ġbee": 1793,
      "Sure": 1794,
      "Ġbowl": 1795,
      "Ġbelieve": 1796,
      "Ġclosed": 1797,
      "Ġwords": 1798,
      "Ġdoctor": 1799,
      "Ġdirty": 1800,
      "ĠDaddy": 1801,
      "Ġstre": 1802,
      "Ġteac": 1803,
      "Ġcoll": 1804,
      "iting": 1805,
      "Ġstuck": 1806,
      "Ġfruit": 1807,
      "Ġthrew": 1808,
      "Why": 1809,
      "Ġbutt": 1810,
      "Ġeating": 1811,
      "Ġbite": 1812,
      "chool": 1813,
      "Ġtown": 1814,
      "Ġmonkey": 1815,
      "Ġbath": 1816,
      "Ġbuck": 1817,
      "ĠMr": 1818,
      "Ġhigher": 1819,
      "Ġheart": 1820,
      "Ġcheered": 1821,
      "Ġtwins": 1822,
      "de": 1823,
      "br": 1824,
      "ord": 1825,
      "Ġneigh": 1826,
      "Ġschool": 1827,
      "Ġstand": 1828,
      "ventually": 1829,
      "Ġfairy": 1830,
      "Ġpers": 1831,
      "Ġclapped": 1832,
      "Ġneighb": 1833,
      "Ġpack": 1834,
      "umb": 1835,
      "Ġsuddenly": 1836,
      "cked": 1837,
      "Ġtower": 1838,
      "Hi": 1839,
      "asket": 1840,
      "Ġteacher": 1841,
      "Ġhit": 1842,
      "Ġlonger": 1843,
      "Ġpast": 1844,
      "Ġwithout": 1845,
      "Ġbasket": 1846,
      "Ġdry": 1847,
      "ract": 1848,
      "ier": 1849,
      "Ġaccident": 1850,
      "Ġmin": 1851,
      "Ġfree": 1852,
      "Ġcray": 1853,
      "Ġtoday": 1854,
      "Ġdrove": 1855,
      "Ġhoped": 1856,
      "Ġwings": 1857,
      "Mia": 1858,
      "Ġsmo": 1859,
      "Ġpushed": 1860,
      "Ġyard": 1861,
      "Ġgentle": 1862,
      "Finally": 1863,
      "Ġcour": 1864,
      "ney": 1865,
      "cy": 1866,
      "Ġfeels": 1867,
      "Ġpocket": 1868,
      "ass": 1869,
      "ors": 1870,
      "Ġhappen": 1871,
      "Ġjour": 1872,
      "Ġforget": 1873,
      "Ġfence": 1874,
      "Ġbrown": 1875,
      "Ġchair": 1876,
      "Ġlon": 1877,
      "orrow": 1878,
      "ead": 1879,
      "Ġgames": 1880,
      "Ġalong": 1881,
      "vel": 1882,
      "Ġswings": 1883,
      "Ġsea": 1884,
      "Ġcorn": 1885,
      "Ġcourse": 1886,
      "Ġsang": 1887,
      "Ġexplained": 1888,
      "ts": 1889,
      "Ġlonely": 1890,
      "Ġadventures": 1891,
      "Ġpiece": 1892,
      "Ġinst": 1893,
      "Ġsinging": 1894,
      "Ġsecret": 1895,
      "ment": 1896,
      "ountain": 1897,
      "Ġwelcome": 1898,
      "Ġupset": 1899,
      "Ġowl": 1900,
      "issed": 1901,
      "Ġswam": 1902,
      "Ġnoises": 1903,
      "Ġbring": 1904,
      "Ġmoved": 1905,
      "Ġapple": 1906,
      "Ġshoes": 1907,
      "Ġyoung": 1908,
      "Ġstories": 1909,
      "yard": 1910,
      "ward": 1911,
      "Ġtrou": 1912,
      "Ġplac": 1913,
      "Ġbackyard": 1914,
      "Ġstars": 1915,
      "Ġtaking": 1916,
      "ho": 1917,
      "Ġexploring": 1918,
      "ĠEmma": 1919,
      "ible": 1920,
      "Ġdist": 1921,
      "itting": 1922,
      "phant": 1923,
      "Ġturns": 1924,
      "Ġlate": 1925,
      "Ġthrow": 1926,
      "Ġrocks": 1927,
      "Ġdropped": 1928,
      "Ġseemed": 1929,
      "oun": 1930,
      "Ġtiny": 1931,
      "Ġexp": 1932,
      "Ġwhe": 1933,
      "ĠMary": 1934,
      "fused": 1935,
      "Ġlunch": 1936,
      "Ġelephant": 1937,
      "ches": 1938,
      "Ġbucket": 1939,
      "Ġneck": 1940,
      "Ġsoup": 1941,
      "Ġbelong": 1942,
      "Ġnaught": 1943,
      "bby": 1944,
      "Ġshop": 1945,
      "Ġjar": 1946,
      "Ġnaughty": 1947,
      "Ġshook": 1948,
      "bow": 1949,
      "Ġwise": 1950,
      "Ġcaught": 1951,
      "Ġca": 1952,
      "Ġrelie": 1953,
      "Ġmail": 1954,
      "Ġes": 1955,
      "ush": 1956,
      "Ġnearby": 1957,
      "ĠFluffy": 1958,
      "ek": 1959,
      "Ġhugs": 1960,
      "Ġthough": 1961,
      "Ġwoke": 1962,
      "Ġdes": 1963,
      "ocked": 1964,
      "Ġwish": 1965,
      "Ġwell": 1966,
      "Ġ3": 1967,
      "Ġdrink": 1968,
      "Ġstreet": 1969,
      "ape": 1970,
      "Ġorange": 1971,
      "Ġph": 1972,
      "Ġyear": 1973,
      "Ġben": 1974,
      "ions": 1975,
      "Ġbusy": 1976,
      "llo": 1977,
      "Ġpig": 1978,
      "ces": 1979,
      "Ġkey": 1980,
      "Ġsu": 1981,
      "adow": 1982,
      "Lila": 1983,
      "Ġmiss": 1984,
      "Ġinv": 1985,
      "Ġcou": 1986,
      "sy": 1987,
      "cing": 1988,
      "Ġrainbow": 1989,
      "Ġbat": 1990,
      "Ġpurp": 1991,
      "ung": 1992,
      "ining": 1993,
      "Ġstar": 1994,
      "Ġtom": 1995,
      "Ġjuice": 1996,
      "aughter": 1997,
      "col": 1998,
      "ity": 1999,
      "Ġhuge": 2000,
      "ĠGrandma": 2001,
      "Ġob": 2002,
      "Ġforever": 2003,
      "ĠInside": 2004,
      "Ġshapes": 2005,
      "Ġbranch": 2006,
      "to": 2007,
      "ours": 2008,
      "Ġfarm": 2009,
      "Ġcow": 2010,
      "Do": 2011,
      "Ġarms": 2012,
      "weet": 2013,
      "vered": 2014,
      "Ġaf": 2015,
      "idge": 2016,
      "ĠFinally": 2017,
      "Ġnest": 2018,
      "Ġstu": 2019,
      "cer": 2020,
      "And": 2021,
      "Ġmark": 2022,
      "Ġpurple": 2023,
      "Ġnose": 2024,
      "Ġsick": 2025,
      "Ġround": 2026,
      "shine": 2027,
      "Ġrelieved": 2028,
      "Ġpeace": 2029,
      "Ġcarry": 2030,
      "Ġwondered": 2031,
      "Ġfit": 2032,
      "Ġdaughter": 2033,
      "ittens": 2034,
      "Ġlife": 2035,
      "Ġwhist": 2036,
      "Ġswimming": 2037,
      "Ġresp": 2038,
      "Ġboun": 2039,
      "Ġgift": 2040,
      "Ġnothing": 2041,
      "ail": 2042,
      "Ġexciting": 2043,
      "Ġsitting": 2044,
      "Ġcir": 2045,
      "ĠThank": 2046,
      "pper": 2047,
      "Ġmine": 2048,
      "Ġsunshine": 2049,
      "Ġret": 2050,
      "raid": 2051,
      "Ġmad": 2052,
      "Ġafraid": 2053,
      "Ġpatient": 2054,
      "Ġkite": 2055,
      "Ġjourney": 2056,
      "Ġmil": 2057,
      "gg": 2058,
      "itch": 2059,
      "Ġletter": 2060,
      "fish": 2061,
      "Ġcreature": 2062,
      "ose": 2063,
      "sting": 2064,
      "Ġonto": 2065,
      "thday": 2066,
      "uched": 2067,
      "Ġtouched": 2068,
      "Ġdays": 2069,
      "Ġhello": 2070,
      "ese": 2071,
      "Ġreturn": 2072,
      "ĠO": 2073,
      "Ġdisco": 2074,
      "let": 2075,
      "ĠSoon": 2076,
      "Ġtakes": 2077,
      "Ġdriver": 2078,
      "Ġaccidentally": 2079,
      "Ġintere": 2080,
      "Ġking": 2081,
      "Ġlaughing": 2082,
      "Ġspoon": 2083,
      "Ġcute": 2084,
      "Ġfan": 2085,
      "Ġpower": 2086,
      "itten": 2087,
      "ĠSammy": 2088,
      "Ġholding": 2089,
      "Ġsounds": 2090,
      "Ġcomes": 2091,
      "Ġlift": 2092,
      "Ġcollect": 2093,
      "Ġcoat": 2094,
      "Ġcave": 2095,
      "Ġcomfort": 2096,
      "Ġgigg": 2097,
      "Ġband": 2098,
      "ness": 2099,
      "Later": 2100,
      "Ġshell": 2101,
      "Ġsunny": 2102,
      "ĠMama": 2103,
      "sc": 2104,
      "board": 2105,
      "Ġinstead": 2106,
      "Ġinc": 2107,
      "Ġcozy": 2108,
      "Ġwra": 2109,
      "irt": 2110,
      "Ġfing": 2111,
      "Ġact": 2112,
      "Ġear": 2113,
      "Ġbench": 2114,
      "Ġbirthday": 2115,
      "Ġce": 2116,
      "Ġhor": 2117,
      "Ġsearched": 2118,
      "Ġpointed": 2119,
      "Ġmist": 2120,
      "Ġgrab": 2121,
      "ped": 2122,
      "Ġlucky": 2123,
      "Ġsmiling": 2124,
      "Ġimag": 2125,
      "Ġpromise": 2126,
      "Ġgather": 2127,
      "og": 2128,
      "Ġbought": 2129,
      "Ġeas": 2130,
      "ten": 2131,
      "alm": 2132,
      "Ġwatching": 2133,
      "round": 2134,
      "Ġspo": 2135,
      "Ġmilk": 2136,
      "Ġsandw": 2137,
      "ize": 2138,
      "Ġpres": 2139,
      "Ġpudd": 2140,
      "Ġstorm": 2141,
      "Of": 2142,
      "Ġkick": 2143,
      "Ġanyone": 2144,
      "Ġwide": 2145,
      "Ġtasty": 2146,
      "ball": 2147,
      "oman": 2148,
      "Ġcheese": 2149,
      "Ġlater": 2150,
      "ove": 2151,
      "gged": 2152,
      "Ġspin": 2153,
      "blem": 2154,
      "unt": 2155,
      "Ġhope": 2156,
      "Ġwoman": 2157,
      "Hey": 2158,
      "Ġtalked": 2159,
      "Ġproblem": 2160,
      "eth": 2161,
      "Bob": 2162,
      "Ġent": 2163,
      "Ġroad": 2164,
      "arp": 2165,
      "Ġbread": 2166,
      "Tommy": 2167,
      "Ġhealthy": 2168,
      "Ġshining": 2169,
      "Ġsuc": 2170,
      "Ġadm": 2171,
      "Ġtrouble": 2172,
      "Ġbutton": 2173,
      "Ġzoom": 2174,
      "Ġsharp": 2175,
      "ub": 2176,
      "Ġperson": 2177,
      "Ġspid": 2178,
      "Ġbottle": 2179,
      "aur": 2180,
      "Ġinteresting": 2181,
      "Ġplane": 2182,
      "Ġrope": 2183,
      "Ġgives": 2184,
      "Ġbush": 2185,
      "els": 2186,
      "Ġlovely": 2187,
      "ĠTweet": 2188,
      "Ġsaf": 2189,
      "Ġclouds": 2190,
      "ĠCome": 2191,
      "Ġpresent": 2192,
      "owed": 2193,
      "Ġpract": 2194,
      "Ġhoney": 2195,
      "ĠJimmy": 2196,
      "Ġmatter": 2197,
      "Ġquest": 2198,
      "Ġsmelled": 2199,
      "Ġclever": 2200,
      "isa": 2201,
      "Ġwhole": 2202,
      "Ġmyster": 2203,
      "Ġvill": 2204,
      "ĠWith": 2205,
      "Ġwhich": 2206,
      "Ġap": 2207,
      "ont": 2208,
      "Ġducks": 2209,
      "Ġspotted": 2210,
      "Ġprot": 2211,
      "Ġrolled": 2212,
      "ndp": 2213,
      "Ġmeet": 2214,
      "Ġcheer": 2215,
      "Ġkiss": 2216,
      "epend": 2217,
      "Ġsur": 2218,
      "Ġapples": 2219,
      "Ġappeared": 2220,
      "Ġhon": 2221,
      "Ġtasted": 2222,
      "Ġpath": 2223,
      "Ġgiant": 2224,
      "Ġcrayons": 2225,
      "Ġhorse": 2226,
      "Ġpop": 2227,
      "Ġorgan": 2228,
      "Ġfront": 2229,
      "Ġzoo": 2230,
      "Ġprotect": 2231,
      "ond": 2232,
      "Ġpile": 2233,
      "cean": 2234,
      "Ġputs": 2235,
      "Ġocean": 2236,
      "oose": 2237,
      "een": 2238,
      "Ġpar": 2239,
      "Ġdanced": 2240,
      "lla": 2241,
      "ching": 2242,
      "Ġlay": 2243,
      "Ġsnowman": 2244,
      "Ġfeather": 2245,
      "ale": 2246,
      "Lucy": 2247,
      "Ġmach": 2248,
      "erly": 2249,
      "Ġtrip": 2250,
      "Every": 2251,
      "Ġthin": 2252,
      "Ġshr": 2253,
      "Ġtun": 2254,
      "amed": 2255,
      "Ġeag": 2256,
      "Ġneighbor": 2257,
      "Ġpuzz": 2258,
      "ÅĵI": 2259,
      "Ġloves": 2260,
      "Ġplaces": 2261,
      "Good": 2262,
      "Molly": 2263,
      "Ġdi": 2264,
      "eb": 2265,
      "izz": 2266,
      "Ġsack": 2267,
      "Ġwearing": 2268,
      "Ġasleep": 2269,
      "Ġseat": 2270,
      "Jim": 2271,
      "In": 2272,
      "Ġmud": 2273,
      "nic": 2274,
      "Ġimpre": 2275,
      "Ġspent": 2276,
      "Ġminut": 2277,
      "ular": 2278,
      "Ġwild": 2279,
      "Ġmed": 2280,
      "Ġsplas": 2281,
      "Ġanswer": 2282,
      "Just": 2283,
      "Ġpill": 2284,
      "itty": 2285,
      "Ġpicnic": 2286,
      "Ġemb": 2287,
      "Ġval": 2288,
      "nn": 2289,
      "ometimes": 2290,
      "Ġcorner": 2291,
      "la": 2292,
      "Ġsnake": 2293,
      "Ġfoot": 2294,
      "Ġbuilding": 2295,
      "Ġscreamed": 2296,
      "Ġslid": 2297,
      "ert": 2298,
      "ndpa": 2299,
      "Ġmind": 2300,
      "Ġsupp": 2301,
      "Ġrespect": 2302,
      "cks": 2303,
      "Ġdirt": 2304,
      "Ġlad": 2305,
      "ĠMittens": 2306,
      "Ġgently": 2307,
      "arge": 2308,
      "Ġoven": 2309,
      "Come": 2310,
      "ĠEmily": 2311,
      "Ġsal": 2312,
      "umber": 2313,
      "St": 2314,
      "hile": 2315,
      "Ġmountain": 2316,
      "Ġconfused": 2317,
      "Ġspider": 2318,
      "Ġbark": 2319,
      "ones": 2320,
      "Ġlive": 2321,
      "Ġdelight": 2322,
      "Ġwrite": 2323,
      "Ġcart": 2324,
      "Ġcard": 2325,
      "Ġworm": 2326,
      "Ġpass": 2327,
      "Ġremind": 2328,
      "Ġfurry": 2329,
      "Ġign": 2330,
      "Ġembar": 2331,
      "Ġembarra": 2332,
      "Ġwhenever": 2333,
      "Ġeventually": 2334,
      "Ġhelpful": 2335,
      "lex": 2336,
      "Ġtid": 2337,
      "Ġcookie": 2338,
      "Ġphone": 2339,
      "Ġser": 2340,
      "Ġbell": 2341,
      "Ġcouch": 2342,
      "Soon": 2343,
      "Ġfeet": 2344,
      "Ġfaces": 2345,
      "Ġrec": 2346,
      "Ġtalking": 2347,
      "Mum": 2348,
      "Ġgoes": 2349,
      "Ġladder": 2350,
      "Ġlast": 2351,
      "Ġcoin": 2352,
      "Ġteach": 2353,
      "Ġchick": 2354,
      "ex": 2355,
      "Ġblew": 2356,
      "unk": 2357,
      "Ġwave": 2358,
      "Ġsmooth": 2359,
      "Ġring": 2360,
      "ĠSt": 2361,
      "mo": 2362,
      "Ġpaw": 2363,
      "bbles": 2364,
      "als": 2365,
      "Ġban": 2366,
      "Ġpan": 2367,
      "Ġcolour": 2368,
      "ĠGo": 2369,
      "Ġpretended": 2370,
      "read": 2371,
      "Ġcalm": 2372,
      "Ġrob": 2373,
      "Ġtries": 2374,
      "Ġshy": 2375,
      "Ġdrive": 2376,
      "Ġpool": 2377,
      "ife": 2378,
      "Ġlarge": 2379,
      "Ġmachine": 2380,
      "Ġstret": 2381,
      "Ġtool": 2382,
      "Ġwaiting": 2383,
      "Ġforgive": 2384,
      "Ġhiding": 2385,
      "Ġspread": 2386,
      "Ġspray": 2387,
      "ĠEverywhere": 2388,
      "Ġfinish": 2389,
      "Ġash": 2390,
      "lebr": 2391,
      "Ġcoo": 2392,
      "ato": 2393,
      "Ġchocol": 2394,
      "Ġpush": 2395,
      "Ġvillage": 2396,
      "Ġcelebr": 2397,
      "Ġpour": 2398,
      "Ġsel": 2399,
      "Ġstra": 2400,
      "Ġtreats": 2401,
      "Ġtomorrow": 2402,
      "Ġant": 2403,
      "Ġple": 2404,
      "ĠHow": 2405,
      "Ġfixed": 2406,
      "Ġfighting": 2407,
      "ĠJenny": 2408,
      "Ġsol": 2409,
      "Ġcloth": 2410,
      "Ġhum": 2411,
      "Ġteeth": 2412,
      "Ġchased": 2413,
      "Ġrude": 2414,
      "Ġkitten": 2415,
      "ĠAl": 2416,
      "Ġtidy": 2417,
      "Ġrobot": 2418,
      "old": 2419,
      "urse": 2420,
      "Ġbanan": 2421,
      "Ġforward": 2422,
      "oph": 2423,
      "Ġrep": 2424,
      "Ġcann": 2425,
      "Ġemp": 2426,
      "Ġembarrassed": 2427,
      "Ġknee": 2428,
      "ĠCh": 2429,
      "Ġsongs": 2430,
      "Ġshirt": 2431,
      "Ġbarked": 2432,
      "Ġempty": 2433,
      "Ġrocket": 2434,
      "ator": 2435,
      "ighed": 2436,
      "Ġspe": 2437,
      "Ġfold": 2438,
      "Ġcarrots": 2439,
      "Ġpuddle": 2440,
      "inted": 2441,
      "aul": 2442,
      "Ġpeaceful": 2443,
      "ĠJust": 2444,
      "Ġbugs": 2445,
      "Ġwhistle": 2446,
      "Ġstep": 2447,
      "Ġleaf": 2448,
      "Ġtightly": 2449,
      "Ġcannot": 2450,
      "Ġtaste": 2451,
      "Ġwore": 2452,
      "Ġgen": 2453,
      "ungle": 2454,
      "Ġnet": 2455,
      "Ġstring": 2456,
      "Ġselfish": 2457,
      "getable": 2458,
      "Ġstir": 2459,
      "ult": 2460,
      "Ġgrew": 2461,
      "Ġcreative": 2462,
      "Ġjungle": 2463,
      "Ġvegetable": 2464,
      "Ġmeadow": 2465,
      "Ġsave": 2466,
      "iger": 2467,
      "Ġstone": 2468,
      "Ġchocolate": 2469,
      "ĠSometimes": 2470,
      "ĠJake": 2471,
      "box": 2472,
      "arm": 2473,
      "Ġtrust": 2474,
      "Ġwip": 2475,
      "My": 2476,
      "Ġcrab": 2477,
      "Ġplate": 2478,
      "Ġsparkly": 2479,
      "den": 2480,
      "Ġdisappo": 2481,
      "Ġtea": 2482,
      "Ġdeter": 2483,
      "umpy": 2484,
      "dge": 2485,
      "Ġdeterm": 2486,
      "ground": 2487,
      "ĠLisa": 2488,
      "Ġspicy": 2489,
      "Ġknocked": 2490,
      "Ġ'": 2491,
      "Ġsheep": 2492,
      "Now": 2493,
      "Ġneckl": 2494,
      "ird": 2495,
      "Please": 2496,
      "Ġsour": 2497,
      "ĠOn": 2498,
      "Ġmeant": 2499,
      "Ġshelf": 2500,
      "most": 2501,
      "Ġmaybe": 2502,
      "Dad": 2503,
      "Ġwash": 2504,
      "Ġlem": 2505,
      "Ġjumping": 2506,
      "ned": 2507,
      "Ġmoon": 2508,
      "Ġlegs": 2509,
      "elly": 2510,
      "Ġhidden": 2511,
      "Ġhours": 2512,
      "Ġwhis": 2513,
      "Ġalmost": 2514,
      "airs": 2515,
      "Ġlanded": 2516,
      "Ġdecor": 2517,
      "ustr": 2518,
      "Ġhonest": 2519,
      "ying": 2520,
      "ĠMum": 2521,
      "Ġknowing": 2522,
      "Ġmissed": 2523,
      "Ġdisappointed": 2524,
      "To": 2525,
      "Ġstood": 2526,
      "Ġav": 2527,
      "'d": 2528,
      "aking": 2529,
      "Ġpri": 2530,
      "ano": 2531,
      "Ġline": 2532,
      "Ġgun": 2533,
      "dle": 2534,
      "Ġnut": 2535,
      "Ġfear": 2536,
      "Ġpin": 2537,
      "Ġbreath": 2538,
      "ĠPlease": 2539,
      "ĠSome": 2540,
      "Ġsharing": 2541,
      "Ġcarried": 2542,
      "Ġpizz": 2543,
      "kin": 2544,
      "ĠEven": 2545,
      "Ġscre": 2546,
      "Mama": 2547,
      "Ġhears": 2548,
      "Ġprince": 2549,
      "Ġgener": 2550,
      "ĠLe": 2551,
      "Ġsnacks": 2552,
      "Ġgroup": 2553,
      "ĠTV": 2554,
      "Ġgray": 2555,
      "Ġtells": 2556,
      "ian": 2557,
      "Ġsplash": 2558,
      "Ġcro": 2559,
      "Ġfrustr": 2560,
      "Ġshore": 2561,
      "erp": 2562,
      "Ġreturned": 2563,
      "Ġscar": 2564,
      "Ġpay": 2565,
      "erry": 2566,
      "Ġunderstood": 2567,
      "Ġthankful": 2568,
      "Ġmysterious": 2569,
      "ĠTheir": 2570,
      "Ġfancy": 2571,
      "gly": 2572,
      "Ġgold": 2573,
      "Ġstanding": 2574,
      "Ġbal": 2575,
      "Ġplants": 2576,
      "ony": 2577,
      "Ġmessy": 2578,
      "Ġwhisp": 2579,
      "Ġsticks": 2580,
      "Ġnecklace": 2581,
      "Be": 2582,
      "Ġugly": 2583,
      "ĠTeddy": 2584,
      "obby": 2585,
      "Ġsuccess": 2586,
      "ĠTogether": 2587,
      "orry": 2588,
      "Ġseed": 2589,
      "Ġsandwich": 2590,
      "Ġsleepy": 2591,
      "lower": 2592,
      "vous": 2593,
      "Ġfrustrated": 2594,
      "Ġjew": 2595,
      "Ġbedroom": 2596,
      "Ġyelled": 2597,
      "Ġvan": 2598,
      "era": 2599,
      "Ġtest": 2600,
      "Ġdrew": 2601,
      "Ġpizza": 2602,
      "Ġtaught": 2603,
      "Ġgathered": 2604,
      "Ġtwirl": 2605,
      "Ġpuzzle": 2606,
      "Ġblow": 2607,
      "Ġcirc": 2608,
      "ital": 2609,
      "Ġgas": 2610,
      "Ġspoil": 2611,
      "Ġwolf": 2612,
      "usie": 2613,
      "Ġpowerful": 2614,
      "ĠAnn": 2615,
      "Ġburn": 2616,
      "ork": 2617,
      "Ġfig": 2618,
      "Ġdetermined": 2619,
      "Ġmot": 2620,
      "ser": 2621,
      "Ġsna": 2622,
      "Ġhosp": 2623,
      "itter": 2624,
      "Ġpolice": 2625,
      "sist": 2626,
      "Ġwaves": 2627,
      "Ġhospital": 2628,
      "hin": 2629,
      "Ġcomfortable": 2630,
      "Ġpillow": 2631,
      "pack": 2632,
      "Ġmummy": 2633,
      "Ġexcite": 2634,
      "Ġeasy": 2635,
      "Ġner": 2636,
      "llie": 2637,
      "There": 2638,
      "Ġashamed": 2639,
      "Ġgenerous": 2640,
      "ual": 2641,
      "Sarah": 2642,
      "ensive": 2643,
      "Ġhur": 2644,
      "Ġrad": 2645,
      "ĠWhy": 2646,
      "iff": 2647,
      "Ġclass": 2648,
      "Ġfil": 2649,
      "Ġdeer": 2650,
      "Ġpassed": 2651,
      "Ġexpensive": 2652,
      "ĠZ": 2653,
      "Jane": 2654,
      "Ġpoor": 2655,
      "ĠPeter": 2656,
      "Ġhel": 2657,
      "Ġnervous": 2658,
      "Ġthese": 2659,
      "osaur": 2660,
      "Ġcaterp": 2661,
      "Ġcaterpill": 2662,
      "Ġminutes": 2663,
      "Ġdancing": 2664,
      "Ġtick": 2665,
      "Ġoften": 2666,
      "izzy": 2667,
      "Ġlit": 2668,
      "ĠJohnny": 2669,
      "Stop": 2670,
      "Ġexcitement": 2671,
      "Ġesc": 2672,
      "light": 2673,
      "Ġgate": 2674,
      "Ġtaken": 2675,
      "Ġreg": 2676,
      "uce": 2677,
      "Ġcries": 2678,
      "Ġbridge": 2679,
      "ĠDon": 2680,
      "work": 2681,
      "Ġspend": 2682,
      "Ġexam": 2683,
      "Ġpleased": 2684,
      "mb": 2685,
      "Ġseek": 2686,
      "iddle": 2687,
      "Ġknight": 2688,
      "Ġnods": 2689,
      "oop": 2690,
      "Ġpacked": 2691,
      "Ġship": 2692,
      "Ġpir": 2693,
      "iness": 2694,
      "Ġfeed": 2695,
      "Ġpolite": 2696,
      "arl": 2697,
      "Ġsold": 2698,
      "Ġdinosaur": 2699,
      "Ġcri": 2700,
      "Ġbone": 2701,
      "Ġscr": 2702,
      "Ġsighed": 2703,
      "illed": 2704,
      "Ġvase": 2705,
      "ote": 2706,
      "Ġbored": 2707,
      "ĠBe": 2708,
      "af": 2709,
      "ina": 2710,
      "Ġsaved": 2711,
      "Ġnumber": 2712,
      "Ġflag": 2713,
      "ĠBr": 2714,
      "Ġvegetables": 2715,
      "ete": 2716,
      "Ġrelax": 2717,
      "Ġtent": 2718,
      "Ġleg": 2719,
      "Ġanswered": 2720,
      "Ġchest": 2721,
      "Ġglass": 2722,
      "Ġtrue": 2723,
      "Ġcaterpillar": 2724,
      "Ġwander": 2725,
      "Ġweak": 2726,
      "Ġflut": 2727,
      "Ġworking": 2728,
      "ecially": 2729,
      "Where": 2730,
      "Ġjelly": 2731,
      "Ġcloset": 2732,
      "issors": 2733,
      "Ġfinger": 2734,
      "Ġhopping": 2735,
      "Ġcontent": 2736,
      "Ġsmelly": 2737,
      "Ġboring": 2738,
      "Ġstuff": 2739,
      "Ġclown": 2740,
      "Ġgrumpy": 2741,
      "Ġchew": 2742,
      "Ġscissors": 2743,
      "Ġasking": 2744,
      "Ġgar": 2745,
      "selves": 2746,
      "oof": 2747,
      "Ġmiddle": 2748,
      "Ġhang": 2749,
      "ushed": 2750,
      "pecially": 2751,
      "Ġscarf": 2752,
      "Ġmatch": 2753,
      "Ġespecially": 2754,
      "Ġyourself": 2755,
      "body": 2756,
      "Ġcrawl": 2757,
      "Ġteam": 2758,
      "Ġdrum": 2759,
      "Ġgiggled": 2760,
      "Ġplayground": 2761,
      "Ġwagged": 2762,
      "Ġwis": 2763,
      "Ġmedic": 2764,
      "Ġsight": 2765,
      "ets": 2766,
      "Ġlazy": 2767,
      "que": 2768,
      "Ġkissed": 2769,
      "Ġlemon": 2770,
      "Jimmy": 2771,
      "Ġcand": 2772,
      "Ġdistance": 2773,
      "Ġtears": 2774,
      "ggs": 2775,
      "Ġmic": 2776,
      "Ġsailed": 2777,
      "Ġeggs": 2778,
      "Ġdrawing": 2779,
      "ates": 2780,
      "ĠBl": 2781,
      "Ġdest": 2782,
      "Ġmov": 2783,
      "Ġshoot": 2784,
      "Ġmedicine": 2785,
      "Ġlead": 2786,
      "Ġpray": 2787,
      "ĠEnd": 2788,
      "Ġmistake": 2789,
      "Ġmir": 2790,
      "Ġbecome": 2791,
      "Ġlying": 2792,
      "ating": 2793,
      "ĠRex": 2794,
      "Ġfis": 2795,
      "Ġballs": 2796,
      "Ġsplashed": 2797,
      "Sorry": 2798,
      "ĠOK": 2799,
      "Ġtie": 2800,
      "Ġlock": 2801,
      "aged": 2802,
      "alous": 2803,
      "ella": 2804,
      "Ġdrop": 2805,
      "Ġadd": 2806,
      "Ġstones": 2807,
      "Ġones": 2808,
      "Ġquestions": 2809,
      "Ġext": 2810,
      "Ġjealous": 2811,
      "Ġclap": 2812,
      "Ġeld": 2813,
      "Ġok": 2814,
      "Ġwalks": 2815,
      "ĠLeo": 2816,
      "Ġrid": 2817,
      "Ġbathroom": 2818,
      "ror": 2819,
      "Ġgets": 2820,
      "Ġcrown": 2821,
      "Ġwheel": 2822,
      "Ġboss": 2823,
      "Ġfruits": 2824,
      "Ġfluffy": 2825,
      "Ġfeathers": 2826,
      "Ġskipped": 2827,
      "Ġglow": 2828,
      "Ġcrack": 2829,
      "Ġdisappeared": 2830,
      "Are": 2831,
      "Ġmap": 2832,
      "Ġcross": 2833,
      "Ġchange": 2834,
      "Ġweek": 2835,
      "Ġruined": 2836,
      "Jill": 2837,
      "Ġmoving": 2838,
      "Ġqueen": 2839,
      "Ġcalling": 2840,
      "Ġdiscovered": 2841,
      "Ġextra": 2842,
      "Ġcage": 2843,
      "imp": 2844,
      "Ġwrote": 2845,
      "Ġbake": 2846,
      "Ġfake": 2847,
      "Ġjuicy": 2848,
      "Ġcap": 2849,
      "Ġthick": 2850,
      "Ġbody": 2851,
      "Their": 2852,
      "ĠAt": 2853,
      "Ġgarage": 2854,
      "Ġfather": 2855,
      "Ġeye": 2856,
      "Sally": 2857,
      "ym": 2858,
      "Ġincred": 2859,
      "ination": 2860,
      "Ġunus": 2861,
      "Ġjoke": 2862,
      "ots": 2863,
      "Ġind": 2864,
      "Ġsoap": 2865,
      "Ġlose": 2866,
      "Ġsweetie": 2867,
      "Ġsell": 2868,
      "Ġbrush": 2869,
      "Ġcolourful": 2870,
      "Ġunusual": 2871,
      "cept": 2872,
      "enny": 2873,
      "Ġroar": 2874,
      "Ġdogs": 2875,
      "elp": 2876,
      "Ġglue": 2877,
      "uggest": 2878,
      "Ġmeasure": 2879,
      "Billy": 2880,
      "Ġsuggest": 2881,
      "Ġcover": 2882,
      "Ġcovered": 2883,
      "Who": 2884,
      "ha": 2885,
      "Ġdish": 2886,
      "keep": 2887,
      "Ġord": 2888,
      "Ġrealised": 2889,
      "Ġfamous": 2890,
      "yal": 2891,
      "asing": 2892,
      "Ġnoisy": 2893,
      "port": 2894,
      "Ġboard": 2895,
      "Ġboys": 2896,
      "Ġlicked": 2897,
      "ĠIf": 2898,
      "Ġdrank": 2899,
      "Ġbranches": 2900,
      "Ġpicks": 2901,
      "Ġadventur": 2902,
      "Ġsug": 2903,
      "umbled": 2904,
      "Ġtag": 2905,
      "Ġcost": 2906,
      "Ġelderly": 2907,
      "Ġmirror": 2908,
      "Ġonce": 2909,
      "Ġeager": 2910,
      "Ġclear": 2911,
      "Me": 2912,
      "Ġhappening": 2913,
      "Sp": 2914,
      "Ġcheck": 2915,
      "Ġincredible": 2916,
      "Ġdig": 2917,
      "ured": 2918,
      "Ġcleaned": 2919,
      "Ġmighty": 2920,
      "Ġtiger": 2921,
      "Ġadventurous": 2922,
      "Ġsugar": 2923,
      "Ġtape": 2924,
      "ately": 2925,
      "Ġtowel": 2926,
      "Ġbanana": 2927,
      "Ġed": 2928,
      "Ġcraw": 2929,
      "Ġmotor": 2930,
      "Ġsil": 2931,
      "cil": 2932,
      "Ġbubbles": 2933,
      "Ġpencil": 2934,
      "Ġfigure": 2935,
      "Ġcrawled": 2936,
      "illi": 2937,
      "Ġfine": 2938,
      "Ġborrow": 2939,
      "Ġhorn": 2940,
      "Ġknife": 2941,
      "Help": 2942,
      "hip": 2943,
      "Ġoffered": 2944,
      "Ġstraw": 2945,
      "fast": 2946,
      "Ġtwist": 2947,
      "ĠBlue": 2948,
      "Ġang": 2949,
      "Ġloyal": 2950,
      "Ġdecide": 2951,
      "Ġyours": 2952,
      "Ġbottom": 2953,
      "ti": 2954,
      "?\".": 2955,
      "ĠSusie": 2956,
      "ache": 2957,
      "Ġbreakfast": 2958,
      "ique": 2959,
      "ĠKitty": 2960,
      "Ġaw": 2961,
      "Ġshows": 2962,
      "Ġword": 2963,
      "ory": 2964,
      "Ġfavour": 2965,
      "Ġlouder": 2966,
      "keeper": 2967,
      "ĠLittle": 2968,
      "land": 2969,
      "Ġunique": 2970,
      "Ġorganized": 2971,
      "Ġtoug": 2972,
      "Ġrare": 2973,
      "Ġmanaged": 2974,
      "Ġenjoying": 2975,
      "Ġnod": 2976,
      "Ġbloom": 2977,
      "fic": 2978,
      "Ġwand": 2979,
      "Ġwhale": 2980,
      "Ġmod": 2981,
      "imed": 2982,
      "Ġegg": 2983,
      "Ġfavourite": 2984,
      "Ġboxes": 2985,
      "uggled": 2986,
      "Ġagainst": 2987,
      "rag": 2988,
      "lies": 2989,
      "Ġgoat": 2990,
      "Ġkindness": 2991,
      "Ġimpressed": 2992,
      "Ġadded": 2993,
      "Ġpump": 2994,
      "Ġfridge": 2995,
      "ipp": 2996,
      "Ġlamp": 2997,
      "Ġdizzy": 2998,
      "Ġdiffic": 2999,
      "Ġwrapped": 3000,
      "Ġsword": 3001,
      "Ġfright": 3002,
      "Ġspun": 3003,
      "Ġgiving": 3004,
      "Ġfool": 3005,
      "Ġwagon": 3006,
      "Ġpee": 3007,
      "Ġsquee": 3008,
      "Ġguess": 3009,
      "olog": 3010,
      "Ġcher": 3011,
      "Ġshake": 3012,
      "ĠMark": 3013,
      "ĠBrown": 3014,
      "Ġarg": 3015,
      "Ġcoins": 3016,
      "Ġdifficult": 3017,
      "Ġham": 3018,
      "Ġhappiness": 3019,
      "Ġsafely": 3020,
      "Ġhero": 3021,
      "Ġbarn": 3022,
      "Ġloudly": 3023,
      "Ġbelonged": 3024,
      "Ġtough": 3025,
      "Ġapolog": 3026,
      "emo": 3027,
      "ilt": 3028,
      "Al": 3029,
      "anged": 3030,
      "Ġgrace": 3031,
      "Ġchicken": 3032,
      "Ġballoons": 3033,
      "ery": 3034,
      "Ġfrown": 3035,
      "ready": 3036,
      "arry": 3037,
      "Ġnorm": 3038,
      "Mummy": 3039,
      "zed": 3040,
      "Gra": 3041,
      "Ġhunt": 3042,
      "Ġjewel": 3043,
      "Amy": 3044,
      "Ġbald": 3045,
      "Ġtunn": 3046,
      "ĠNo": 3047,
      "Ġgrown": 3048,
      "Ġlearning": 3049,
      "Ġneeds": 3050,
      "Ġrich": 3051,
      "Ġaccept": 3052,
      "Ġfat": 3053,
      "Ġmelt": 3054,
      "Ġshark": 3055,
      "Ġalready": 3056,
      "Ġcircles": 3057,
      "edient": 3058,
      "Ġharm": 3059,
      "Ġweird": 3060,
      "rage": 3061,
      "Ġdepend": 3062,
      "ages": 3063,
      "Ġrecord": 3064,
      "Ġcheerful": 3065,
      "Ġfoolish": 3066,
      "Ġcam": 3067,
      "Ġbalance": 3068,
      "Sue": 3069,
      "head": 3070,
      "Ġpointing": 3071,
      "Ġchase": 3072,
      "Ġflash": 3073,
      "Ġslipped": 3074,
      "Ġmixed": 3075,
      "Ġhurts": 3076,
      "Ġbrothers": 3077,
      "Ġbuttons": 3078,
      "Ġpainting": 3079,
      "Ġsmoke": 3080,
      "ipper": 3081,
      "Ġsearch": 3082,
      "Ġstrawber": 3083,
      "Ġnormal": 3084,
      "Well": 3085,
      "Ġmarket": 3086,
      "How": 3087,
      "Ġisland": 3088,
      "Ġlog": 3089,
      "Ġrough": 3090,
      "Joe": 3091,
      "Ġears": 3092,
      "Ġhose": 3093,
      "omed": 3094,
      "Ġjack": 3095,
      "ject": 3096,
      "Ġstream": 3097,
      "ĠPete": 3098,
      "arth": 3099,
      "Ġtrucks": 3100,
      "Ġmovie": 3101,
      "bborn": 3102,
      "Ġturt": 3103,
      "Ġcity": 3104,
      "Ġchoose": 3105,
      "Ġkinds": 3106,
      "Ġfour": 3107,
      "alk": 3108,
      "Ġmeans": 3109,
      "Ġdreams": 3110,
      "Ġstubborn": 3111,
      "Ġter": 3112,
      "ature": 3113,
      "Ġcompet": 3114,
      "Ġobedient": 3115,
      "Ġnosy": 3116,
      "ĠBobby": 3117,
      "Ġswan": 3118,
      "Ġlifted": 3119,
      "Ġfrightened": 3120,
      "Ġweal": 3121,
      "Ġref": 3122,
      "Ġbrilli": 3123,
      "ĠMrs": 3124,
      "Ġgrap": 3125,
      "oot": 3126,
      "Ġmoms": 3127,
      "Ġclay": 3128,
      "Ġicy": 3129,
      "Ġsaying": 3130,
      "iable": 3131,
      "Ġdreamed": 3132,
      "Ġbrilliant": 3133,
      "Ġmagn": 3134,
      "Ġedge": 3135,
      "gy": 3136,
      "und": 3137,
      "Ġtwig": 3138,
      "Ġusing": 3139,
      "Ġscare": 3140,
      "Ġskin": 3141,
      "Ġproudly": 3142,
      "Ġunl": 3143,
      "Ġbitter": 3144,
      "Ġoffice": 3145,
      "Ġsounded": 3146,
      "Ġreliable": 3147,
      "Ġwalls": 3148,
      "Ġvalu": 3149,
      "wards": 3150,
      "Ġlibr": 3151,
      "Ġuseful": 3152,
      "Ġescape": 3153,
      "Ġpil": 3154,
      "atter": 3155,
      "Ġabove": 3156,
      "Ġstronger": 3157,
      "Ġber": 3158,
      "Ġcircle": 3159,
      "Ġdolp": 3160,
      "Ġwrap": 3161,
      "cient": 3162,
      "Ġguit": 3163,
      "Ġrat": 3164,
      "Ġthoughtful": 3165,
      "Ġtrack": 3166,
      "Ġberries": 3167,
      "laimed": 3168,
      "Ġjoined": 3169,
      "Ġtools": 3170,
      "Ġcompetit": 3171,
      "Ġtoast": 3172,
      "Ġlean": 3173,
      "Ġfier": 3174,
      "ĠDucky": 3175,
      "ĠWhenever": 3176,
      "Ġinvited": 3177,
      "Ġexclaimed": 3178,
      "Ġhats": 3179,
      "Ġfalls": 3180,
      "Ġdependable": 3181,
      "Ġfre": 3182,
      "ĠToday": 3183,
      "iv": 3184,
      "Ġsuit": 3185,
      "Ġtank": 3186,
      "Ġcrayon": 3187,
      "Ġjam": 3188,
      "Ġgrandpa": 3189,
      "Ġtrunk": 3190,
      "Ġspoiled": 3191,
      "Ġbossy": 3192,
      "Ġexplored": 3193,
      "Ġindepend": 3194,
      "Ġgem": 3195,
      "Ġroof": 3196,
      "Ġcleaning": 3197,
      "bin": 3198,
      "Ġancient": 3199,
      "Ġtummy": 3200,
      "Ġenorm": 3201,
      "Ġbushes": 3202,
      "Ġshells": 3203,
      "Ġreminded": 3204,
      "Ġfierce": 3205,
      "Ġharder": 3206,
      "Ġenormous": 3207,
      "oppy": 3208,
      "ye": 3209,
      "Ġtimes": 3210,
      "Ġfrag": 3211,
      "Ġthu": 3212,
      "Ġswe": 3213,
      "ĠFred": 3214,
      "Ġchose": 3215,
      "Spot": 3216,
      "Ġyog": 3217,
      "Ġstumbled": 3218,
      "Ġperform": 3219,
      "Ġlaughs": 3220,
      "Ġshape": 3221,
      "Ġcabin": 3222,
      "Ġdesign": 3223,
      "ention": 3224,
      "ÅĵLet": 3225,
      "ext": 3226,
      "Ġfountain": 3227,
      "ola": 3228,
      "ĠBu": 3229,
      "Ġyarn": 3230,
      "Ġterri": 3231,
      "Ġsuggested": 3232,
      "Ġwake": 3233,
      "amond": 3234,
      "Ġspace": 3235,
      "Here": 3236,
      "ress": 3237,
      "Ġhelps": 3238,
      "Ġmem": 3239,
      "Ġturtle": 3240,
      "Ġvaluable": 3241,
      "Ġguitar": 3242,
      "Ġmarble": 3243,
      "Ġdelighted": 3244,
      "orge": 3245,
      "Ġsmaller": 3246,
      "irp": 3247,
      "ipe": 3248,
      "Ġbeet": 3249,
      "Ġnotice": 3250,
      "Ġdiamond": 3251,
      "ĠU": 3252,
      "ĠMy": 3253,
      "Ġrode": 3254,
      "Ġlaw": 3255,
      "Ġjog": 3256,
      "Ġraced": 3257,
      "Ġcudd": 3258,
      "ĠNemo": 3259,
      "ĠElla": 3260,
      "ouses": 3261,
      "Ġindependent": 3262,
      "Ġparrot": 3263,
      "Ġshone": 3264,
      "Ġcounted": 3265,
      "Ġseem": 3266,
      "Ġexcitedly": 3267,
      "Ġshowing": 3268,
      "Ġfragile": 3269,
      "Ġbuilt": 3270,
      "Ġlow": 3271,
      "anut": 3272,
      "Ġknows": 3273,
      "Ġcamera": 3274,
      "Ġson": 3275,
      "Ġcostum": 3276,
      "uring": 3277,
      "Ġbrightly": 3278,
      "Ġwealthy": 3279,
      "dom": 3280,
      "kn": 3281,
      "Ġcere": 3282,
      "Ġsuccessful": 3283,
      "inary": 3284,
      "Ġbounce": 3285,
      "Ġfingers": 3286,
      "Ġadmired": 3287,
      "Ġangel": 3288,
      "Ġcop": 3289,
      "anger": 3290,
      "Ġways": 3291,
      "ĠRose": 3292,
      "Ġstudy": 3293,
      "Em": 3294,
      "Ġchanged": 3295,
      "Ġbags": 3296,
      "Ġbirdie": 3297,
      "Ġbatter": 3298,
      "Ġstamp": 3299,
      "Ġsolve": 3300,
      "Ġthirst": 3301,
      "Ġbull": 3302,
      "Ġhouses": 3303,
      "gest": 3304,
      "Ġstri": 3305,
      "Ġarrow": 3306,
      "Ġmole": 3307,
      "Ġpainted": 3308,
      "umbers": 3309,
      "Ġtunnel": 3310,
      "inal": 3311,
      "Ġrushed": 3312,
      "iew": 3313,
      "Ġpicking": 3314,
      "Ġtele": 3315,
      "Ġlights": 3316,
      "Ġprize": 3317,
      "Ġthemselves": 3318,
      "Ġbiggest": 3319,
      "Ġdove": 3320,
      "Ġkicked": 3321,
      "Ġpractice": 3322,
      "Ġmarch": 3323,
      "eorge": 3324,
      "com": 3325,
      "iginal": 3326,
      "Ġfresh": 3327,
      "Ġtooth": 3328,
      "Ġgoose": 3329,
      "Ġview": 3330,
      "Ġpost": 3331,
      "Ġsauce": 3332,
      "Ġlab": 3333,
      "Ġenvel": 3334,
      "cod": 3335,
      "Ġcomput": 3336,
      "known": 3337,
      "ado": 3338,
      "Ġsunf": 3339,
      "Ġsearching": 3340,
      "Ġhay": 3341,
      "Ġcone": 3342,
      "Ġresc": 3343,
      "Ġpoured": 3344,
      "Ġpumpkin": 3345,
      "Ġspinning": 3346,
      "corn": 3347,
      "Ġyet": 3348,
      "Ġgrand": 3349,
      "ĠFin": 3350,
      "Ġsalad": 3351,
      "Ġoriginal": 3352,
      "Ġcheap": 3353,
      "Ġstove": 3354,
      "Ġcereal": 3355,
      "Ġenc": 3356,
      "upid": 3357,
      "Ġclum": 3358,
      "Ġpeanut": 3359,
      "Ġdreaming": 3360,
      "anny": 3361,
      "Ġshadow": 3362,
      "Ġscrat": 3363,
      "Ġbeetle": 3364,
      "Ġbeak": 3365,
      "Ġdull": 3366,
      "uth": 3367,
      "Ġforth": 3368,
      "ĠMar": 3369,
      "Ġunknown": 3370,
      "Ġmetal": 3371,
      "ĠAlice": 3372,
      "Ġthirsty": 3373,
      "Ġcompass": 3374,
      "Ġserious": 3375,
      "Ġcrocod": 3376,
      "Ġnurse": 3377,
      "Ġpopcorn": 3378,
      "Ġsteal": 3379,
      "Ġdough": 3380,
      "Ġreward": 3381,
      "illie": 3382,
      "Ġpant": 3383,
      "Ġplayful": 3384,
      "Ġhandle": 3385,
      "Ġstupid": 3386,
      "ĠDave": 3387,
      "Ġclock": 3388,
      "Ġending": 3389,
      "âĤ¬âĢ": 3390,
      "Ġpup": 3391,
      "Ġpersist": 3392,
      "vice": 3393,
      "tern": 3394,
      "Ġwiped": 3395,
      "Ġprep": 3396,
      "ilty": 3397,
      "Ġnumbers": 3398,
      "Ġguilty": 3399,
      "Ġfinding": 3400,
      "Ġdelicate": 3401,
      "Ġbean": 3402,
      "Ġdesk": 3403,
      "Ġwire": 3404,
      "ither": 3405,
      "Ġumb": 3406,
      "Ġstairs": 3407,
      "Ġlocked": 3408,
      "Ġflute": 3409,
      "Ġflashlight": 3410,
      "Ġclumsy": 3411,
      "Ġumbre": 3412,
      "Ġgraceful": 3413,
      "Ġcareless": 3414,
      "Ġtelling": 3415,
      "apped": 3416,
      "Ġhoop": 3417,
      "Ġsniff": 3418,
      "Ġwhispered": 3419,
      "Ġfork": 3420,
      "Ġnicely": 3421,
      "Ġhairy": 3422,
      "Ġtrap": 3423,
      "Ġcarrying": 3424,
      "Ġpeeked": 3425,
      "Ġallowed": 3426,
      "Ġdead": 3427,
      "ience": 3428,
      "Ġmoder": 3429,
      "Ġmis": 3430,
      "ĠMummy": 3431,
      "Ġleaving": 3432,
      "Ġchar": 3433,
      "Ġboats": 3434,
      "Ġthunder": 3435,
      "Ġow": 3436,
      "Ġpotato": 3437,
      "Ġing": 3438,
      "Ġmel": 3439,
      "Ġthose": 3440,
      "Ġshel": 3441,
      "time": 3442,
      "Ġsnee": 3443,
      "Ġterrible": 3444,
      "Ġsudden": 3445,
      "Ġnote": 3446,
      "!\".": 3447,
      "Ġpasta": 3448,
      "Ġimagined": 3449,
      "Ġcompassion": 3450,
      "Ġbump": 3451,
      "ray": 3452,
      "redient": 3453,
      "Ġsparkled": 3454,
      "Ġavo": 3455,
      "Ġscreen": 3456,
      "Ġregular": 3457,
      "Ġingredient": 3458,
      "Ġwashed": 3459,
      "ĠBella": 3460,
      "Ġtomato": 3461,
      "While": 3462,
      "Ġstranger": 3463,
      "Ġwarned": 3464,
      "Ġenvelope": 3465,
      "Ġhalf": 3466,
      "Ġjolly": 3467,
      "ement": 3468,
      "Ġpattern": 3469,
      "Ġpopular": 3470,
      "Ġjacket": 3471,
      "Ġmodern": 3472,
      "ines": 3473,
      "Ġprint": 3474,
      "Ġmailbox": 3475,
      "ĠTweety": 3476,
      "Ġpirate": 3477,
      "Ġearth": 3478,
      "Ġcomputer": 3479,
      "Ġpow": 3480,
      "Ġfriendship": 3481,
      "ĠWhile": 3482,
      "oomy": 3483,
      "comfort": 3484,
      "Ġgrowing": 3485,
      "Ġhammer": 3486,
      "Ġstat": 3487,
      "Ġshiver": 3488,
      "Ġsne": 3489,
      "Ġimpress": 3490,
      "Ġliz": 3491,
      "Ġmeal": 3492,
      "Ġdeliver": 3493,
      "Ġacorn": 3494,
      "ĠBobo": 3495,
      "Ġseeds": 3496,
      "ision": 3497,
      "robe": 3498,
      "Ġuncomfort": 3499,
      "Ġaunt": 3500,
      "isk": 3501,
      "ugged": 3502,
      "Ġuncomfortable": 3503,
      "Ġcur": 3504,
      "Ġbees": 3505,
      "ĠEllie": 3506,
      "Ġdoesn": 3507,
      "Ġrubb": 3508,
      "Ġmissing": 3509,
      "tter": 3510,
      "illa": 3511,
      "Ġscatter": 3512,
      "Ġzip": 3513,
      "ations": 3514,
      "Ġrefused": 3515,
      "Ġenv": 3516,
      "Ġdriving": 3517,
      "Ġpige": 3518,
      "Ġtied": 3519,
      "Ġflex": 3520,
      "Ġcrocodile": 3521,
      "Ġspilled": 3522,
      "Ġorder": 3523,
      "Ġguard": 3524,
      "Ġpenny": 3525,
      "Ġrubbed": 3526,
      "Ġstops": 3527,
      "Ġcomplet": 3528,
      "Ġtwirled": 3529,
      "See": 3530,
      "Ġer": 3531,
      "Ġwing": 3532,
      "Ġingredients": 3533,
      "Ġadvice": 3534,
      "Ġattic": 3535,
      "Ġpersistent": 3536,
      "Ġtrump": 3537,
      "ÅĵWhat": 3538,
      "Ġthinking": 3539,
      "Ġwitch": 3540,
      "ellig": 3541,
      "Ġhelm": 3542,
      "ÅĵLetÃ¢": 3543,
      "Ġload": 3544,
      "Ġintellig": 3545,
      "Ġhanded": 3546,
      "Ġtravel": 3547,
      "Ġperm": 3548,
      "Ġsink": 3549,
      "Ġdust": 3550,
      "Ġsorts": 3551,
      "arsh": 3552,
      "Ġumbrella": 3553,
      "het": 3554,
      "ĠYour": 3555,
      "Ġjug": 3556,
      "ÅĵIt": 3557,
      "Ġrub": 3558,
      "Ġbarber": 3559,
      "Ġotter": 3560,
      "Ġanx": 3561,
      "Ġpatch": 3562,
      "Ġearly": 3563,
      "Ġbent": 3564,
      "uddy": 3565,
      "Ġsquash": 3566,
      "Ġsleeping": 3567,
      "Ġquestion": 3568,
      "Ġcreate": 3569,
      "Ġchasing": 3570,
      "Ġsurf": 3571,
      "Ġcooking": 3572,
      "Ġdestro": 3573,
      "Ġtask": 3574,
      "Ġscale": 3575,
      "Ġrose": 3576,
      "aghet": 3577,
      "Ġplaced": 3578,
      "Ġflexible": 3579,
      "aghetti": 3580,
      "awn": 3581,
      "ict": 3582,
      "Ġcelebrate": 3583,
      "Ġshut": 3584,
      "Ġuncle": 3585,
      "fa": 3586,
      "Ġcounting": 3587,
      "Ġanxious": 3588,
      "Ġnature": 3589,
      "Ġbrace": 3590,
      "Ġdiscover": 3591,
      "Ġslides": 3592,
      "Ġgasped": 3593,
      "Ġstage": 3594,
      "Ġspaghetti": 3595,
      "Ġcrazy": 3596,
      "Ġhumble": 3597,
      "Ġharmless": 3598,
      "Ġrug": 3599,
      "Ġscoot": 3600,
      "Ġsunflower": 3601,
      "llip": 3602,
      "Ġeng": 3603,
      "Ġbeauty": 3604,
      "Ġbutterflies": 3605,
      "Ġcreatures": 3606,
      "llipop": 3607,
      "Ġmask": 3608,
      "Ġresist": 3609,
      "ĠAlex": 3610,
      "Ġlibrary": 3611,
      "io": 3612,
      "Ġblueber": 3613,
      "Ġencou": 3614,
      "Ġimpressive": 3615,
      "Ġshocked": 3616,
      "Ġtruth": 3617,
      "Ġsnuggled": 3618,
      "Ġlizard": 3619,
      "Ġtor": 3620,
      "ince": 3621,
      "Ġknock": 3622,
      "Ġsquare": 3623,
      "Ġsett": 3624,
      "Ġordinary": 3625,
      "iches": 3626,
      "ĠcouldnÃ¢": 3627,
      "Ġpale": 3628,
      "Ġshield": 3629,
      "Ġlollipop": 3630,
      "Ġtrumpet": 3631,
      "Ġvol": 3632,
      "cano": 3633,
      "ĠMandy": 3634,
      "Ġrece": 3635,
      "ud": 3636,
      "loo": 3637,
      "Ġcush": 3638,
      "ĠMike": 3639,
      "Ġdisg": 3640,
      "Ġspring": 3641,
      "orant": 3642,
      "Ġspeed": 3643,
      "Ġcricket": 3644,
      "Ġhung": 3645,
      "Ġmill": 3646,
      "Ġgum": 3647,
      "ĠSn": 3648,
      "ric": 3649,
      "Ġtowers": 3650,
      "Ġbrighter": 3651,
      "ĠKim": 3652,
      "ophie": 3653,
      "Ġpants": 3654,
      "used": 3655,
      "host": 3656,
      "Ġdisgust": 3657,
      "Ġimpat": 3658,
      "Ġbadly": 3659,
      "uper": 3660,
      "Ġchance": 3661,
      "Ġattract": 3662,
      "Ġdolphin": 3663,
      "Ġitself": 3664,
      "ĠFr": 3665,
      "Ġreading": 3666,
      "ĠToby": 3667,
      "Ġcrane": 3668,
      "Ġobject": 3669,
      "Ġcharming": 3670,
      "Ġahead": 3671,
      "arian": 3672,
      "Ġpepper": 3673,
      "Ġholds": 3674,
      "Ġenth": 3675,
      "Ġneat": 3676,
      "Ġspoke": 3677,
      "noon": 3678,
      "Ġafternoon": 3679,
      "Ġstickers": 3680,
      "Ġopens": 3681,
      "Ġmath": 3682,
      "Ġghost": 3683,
      "Ġsadly": 3684,
      "ĠLook": 3685,
      "Ġcomb": 3686,
      "htub": 3687,
      "Ġanywhere": 3688,
      "Ġwheels": 3689,
      "Ġphot": 3690,
      "Ġcourage": 3691,
      "Ġstatue": 3692,
      "Ġwindows": 3693,
      "Ġbathtub": 3694,
      "Ġignorant": 3695,
      "Ġstretched": 3696,
      "Ġimpatient": 3697,
      "Ġdug": 3698,
      "Ġstation": 3699,
      "Ġcact": 3700,
      "ebra": 3701,
      "Ġmagnet": 3702,
      "Ġenthus": 3703,
      "Ġintelligent": 3704,
      "Ġtem": 3705,
      "Ġcarp": 3706,
      "Ġdrawer": 3707,
      "Ġsandwiches": 3708,
      "Ġsend": 3709,
      "Ġleop": 3710,
      "Ġmeas": 3711,
      "Ġtrick": 3712,
      "Ġled": 3713,
      "Ġgifted": 3714,
      "coa": 3715,
      "Ġshoe": 3716,
      "Ġcartoon": 3717,
      "Ġfearful": 3718,
      "Ġvolcano": 3719,
      "aid": 3720,
      "Ġpiano": 3721,
      "Ġletters": 3722,
      "Ġmelon": 3723,
      "Ġcocoa": 3724,
      "Ġcupboard": 3725,
      "aurant": 3726,
      "Ġnail": 3727,
      "Ġflour": 3728,
      "Ġzebra": 3729,
      "Ġsplit": 3730,
      "Ġcollar": 3731,
      "cu": 3732,
      "Ġrestaurant": 3733,
      "Ġfurther": 3734,
      "Ġnames": 3735,
      "Ġbase": 3736,
      "aches": 3737,
      "Ġcompassionate": 3738,
      "Ġgloomy": 3739,
      "bled": 3740,
      "Ġpebble": 3741,
      "Ġcompetitive": 3742,
      "Ġcactus": 3743,
      "Ġmay": 3744,
      "stri": 3745,
      "aby": 3746,
      "gu": 3747,
      "iest": 3748,
      "ĠHere": 3749,
      "ices": 3750,
      "Ġimpro": 3751,
      "Ġnuts": 3752,
      "Ġdestroy": 3753,
      "Go": 3754,
      "ĠPat": 3755,
      "Ġnowhere": 3756,
      "Ġjeep": 3757,
      "Ġpracticed": 3758,
      "Ġcamp": 3759,
      "Ġseal": 3760,
      "Ġjet": 3761,
      "ÅĵYes": 3762,
      "Ġrestless": 3763,
      "Ġhurry": 3764,
      "Ġpigeon": 3765,
      "ikes": 3766,
      "Ġshine": 3767,
      "ĠEverything": 3768,
      "Ġfirework": 3769,
      "Ġengine": 3770,
      "Ġtire": 3771,
      "Ġpurse": 3772,
      "Ġgir": 3773,
      "Ġyawn": 3774,
      "Ġener": 3775,
      "ibb": 3776,
      "Ġhipp": 3777,
      "Ġpretending": 3778,
      "Ġadmire": 3779,
      "Mary": 3780,
      "oe": 3781,
      "ĠSm": 3782,
      "Ġsofa": 3783,
      "Ġpackage": 3784,
      "Ġhunter": 3785,
      "Ġshaking": 3786,
      "ĠWh": 3787,
      "Ġtrash": 3788,
      "Ġdisgusting": 3789,
      "ips": 3790,
      "Ġsupport": 3791,
      "Ġjumps": 3792,
      "Ġenvious": 3793,
      "Ow": 3794,
      "Ġpony": 3795,
      "Ġanyway": 3796,
      "Ġdeaf": 3797,
      "aff": 3798,
      "Ġtap": 3799,
      "opus": 3800,
      "ctopus": 3801,
      "ĠJoey": 3802,
      "Ġcooked": 3803,
      "Ġtur": 3804,
      "ĠLola": 3805,
      "Ġraven": 3806,
      "Ġhuman": 3807,
      "ĠEventually": 3808,
      "Ġvalue": 3809,
      "Ġstack": 3810,
      "Ġspell": 3811,
      "Ġcompl": 3812,
      "Yay": 3813,
      "Ġmush": 3814,
      "Ġcandle": 3815,
      "Ġattractive": 3816,
      "Ġcarpet": 3817,
      "gn": 3818,
      "Ġbri": 3819,
      "erable": 3820,
      "ĠGrandpa": 3821,
      "Ġwheat": 3822,
      "Ġoctopus": 3823,
      "Ġswitch": 3824,
      "Ġbandage": 3825,
      "Ġcards": 3826,
      "Ġnobody": 3827,
      "Ġcats": 3828,
      "Ġmiserable": 3829,
      "ccol": 3830,
      "ĠPaul": 3831,
      "ccoli": 3832,
      "ceed": 3833,
      "ief": 3834,
      "Ġunpack": 3835,
      "ophone": 3836,
      "Ġtorn": 3837,
      "Ġsuper": 3838,
      "ĠCl": 3839,
      "Ġbracelet": 3840,
      "Ġleopard": 3841,
      "par": 3842,
      "Ġsepar": 3843,
      "Ġlaser": 3844,
      "Ġsalt": 3845,
      "Ġdecorate": 3846,
      "Ġsweater": 3847,
      "Ġbet": 3848,
      "Ġhelpless": 3849,
      "Ġwaff": 3850,
      "Ġsoar": 3851,
      "Ġreco": 3852,
      "Ġcryst": 3853,
      "Ġdistant": 3854,
      "cream": 3855,
      "Ġostri": 3856,
      "Ġrice": 3857,
      "ĠPe": 3858,
      "hood": 3859,
      "shed": 3860,
      "Ġdess": 3861,
      "Ġrules": 3862,
      "Alice": 3863,
      "ffe": 3864,
      "Ġalert": 3865,
      "Ġhedge": 3866,
      "aroo": 3867,
      "angaroo": 3868,
      "Ġfilthy": 3869,
      "Ġturkey": 3870,
      "Ġstarts": 3871,
      "ĠTweetie": 3872,
      "ffee": 3873,
      "year": 3874,
      "Ġax": 3875,
      "Ġol": 3876,
      "Ġgor": 3877,
      "Ġbackpack": 3878,
      "Ġclub": 3879,
      "Ġpengu": 3880,
      "ses": 3881,
      "Benny": 3882,
      "Ġsym": 3883,
      "ummer": 3884,
      "Ġolder": 3885,
      "Ġexplain": 3886,
      "uct": 3887,
      "ÅĵThat": 3888,
      "Ġthread": 3889,
      "Ġcows": 3890,
      "Ġgiggle": 3891,
      "zzy": 3892,
      "ĠAndy": 3893,
      "Ġbroccoli": 3894,
      "iron": 3895,
      "Ġstared": 3896,
      "Ġkangaroo": 3897,
      "Ġpressed": 3898,
      "Ġelev": 3899,
      "Ġfootball": 3900,
      "Ġhippo": 3901,
      "Ġtray": 3902,
      "Ġclapping": 3903,
      "cycle": 3904,
      "Ġparade": 3905,
      "Ġlively": 3906,
      "aked": 3907,
      "ailable": 3908,
      "Ġsucceed": 3909,
      "Ġpaws": 3910,
      "Ġsize": 3911,
      "Ġbicy": 3912,
      "Ġrolling": 3913,
      "Ġsticker": 3914,
      "gging": 3915,
      "Ġgolf": 3916,
      "Ġleash": 3917,
      "Ġchain": 3918,
      "ubby": 3919,
      "Ġbeep": 3920,
      "Ġgoal": 3921,
      "bol": 3922,
      "Ġmushroom": 3923,
      "Re": 3924,
      "Ġcurt": 3925,
      "orable": 3926,
      "Ġhappier": 3927,
      "Ġelevator": 3928,
      "cut": 3929,
      "Ġaxe": 3930,
      "Ġsymbol": 3931,
      "Ġcurtain": 3932,
      "Ġhook": 3933,
      "Ġhive": 3934,
      "Ġpun": 3935,
      "urb": 3936,
      "Ġavailable": 3937,
      "Ġhelmet": 3938,
      "Ġvine": 3939,
      "apa": 3940,
      "Ġdisturb": 3941,
      "Ġmicr": 3942,
      "Ġsilver": 3943,
      "Ġmug": 3944,
      "Ġquite": 3945,
      "Ġdessert": 3946,
      "If": 3947,
      "Ġoy": 3948,
      "Ġjokes": 3949,
      "Ġbounced": 3950,
      "aulif": 3951,
      "Ġharsh": 3952,
      "Ġtrop": 3953,
      "ĠPolly": 3954,
      "Ġrod": 3955,
      "Ġcountry": 3956,
      "Ġscooter": 3957,
      "Ġsoldier": 3958,
      "Ġavoc": 3959,
      "ĠBear": 3960,
      "Ġcoffee": 3961,
      "Ġcolours": 3962,
      "Ġexper": 3963,
      "Everyone": 3964,
      "heart": 3965,
      "inking": 3966,
      "ĠBuddy": 3967,
      "Ġskip": 3968,
      "Ġneedle": 3969,
      "Ġadorable": 3970,
      "Ġmessage": 3971,
      "Ġpushing": 3972,
      "Ġtreasures": 3973,
      "Ġstirred": 3974,
      "ĠBill": 3975,
      "ĠWhere": 3976,
      "Ġpainter": 3977,
      "Ġsecond": 3978,
      "Ġneighbour": 3979,
      "Ġorganize": 3980,
      "Ġroared": 3981,
      "Ġframe": 3982,
      "Ġmicrophone": 3983,
      "Ġcord": 3984,
      "Ġur": 3985,
      "Ġsomewhere": 3986,
      "Ġsteps": 3987,
      "Ġrecogn": 3988,
      "Ġostrich": 3989,
      "Ġtrophy": 3990,
      "Ġfu": 3991,
      "Ġcaulif": 3992,
      "Ġhall": 3993,
      "ĠGive": 3994,
      "Ġriding": 3995,
      "Ġcushion": 3996,
      "ĠSmith": 3997,
      "Ġgorilla": 3998,
      "ef": 3999,
      "ipping": 4000,
      "Ġsent": 4001,
      "Ġbin": 4002,
      "Ġstarting": 4003,
      "ĠGeorge": 4004,
      "Ġbarrel": 4005,
      "Ġrepe": 4006,
      "Ġwishes": 4007,
      "Ġmodest": 4008,
      "ws": 4009,
      "Ġoat": 4010,
      "ĠSh": 4011,
      "Little": 4012,
      "Ġmuff": 4013,
      "Ġchubby": 4014,
      "Ġuniver": 4015,
      "Ġpolish": 4016,
      "ĠGrace": 4017,
      "Ġradio": 4018,
      "ĠAre": 4019,
      "stairs": 4020,
      "Ġshouts": 4021,
      "Ġforgave": 4022,
      "Ġcooler": 4023,
      "Ġpilot": 4024,
      "Ġsle": 4025,
      "elery": 4026,
      "Ġvi": 4027,
      "Ġgiven": 4028,
      "iskers": 4029,
      "night": 4030,
      "ĠdidnÃ¢": 4031,
      "Ġart": 4032,
      "Ġholes": 4033,
      "Ġeras": 4034,
      "Ġluck": 4035,
      "Ġonion": 4036,
      "Ġthief": 4037,
      "Ġspir": 4038,
      "Ġpaid": 4039,
      "Ġvisited": 4040,
      "Ġzoomed": 4041,
      "ĠBrownie": 4042,
      "Ġlear": 4043,
      "Ġlistening": 4044,
      "Ġbehave": 4045,
      "Ġtriang": 4046,
      "Ġcostume": 4047,
      "Ġbicycle": 4048,
      "stic": 4049,
      "Ġscold": 4050,
      "Ġbarking": 4051,
      "Ġstretch": 4052,
      "Ġlearnt": 4053,
      "Ġshort": 4054,
      "Ġpulls": 4055,
      "Ġcrystal": 4056,
      "az": 4057,
      "ube": 4058,
      "aled": 4059,
      "Ġlightning": 4060,
      "Ġobser": 4061,
      "Ġspeak": 4062,
      "ci": 4063,
      "render": 4064,
      "Ġcase": 4065,
      "Ġlip": 4066,
      "Ġended": 4067,
      "ebook": 4068,
      "ooped": 4069,
      "Ġkay": 4070,
      "ĠJerry": 4071,
      "Give": 4072,
      "eer": 4073,
      "Ġnotebook": 4074,
      "Ġbreat": 4075,
      "Ġtroubled": 4076,
      "hino": 4077,
      "Ġten": 4078,
      "Ġpor": 4079,
      "Ġhadn": 4080,
      "Ġsort": 4081,
      "Ġswinging": 4082,
      "Ġmixer": 4083,
      "Ġshopkeeper": 4084,
      "Ġsummer": 4085,
      "astic": 4086,
      "iastic": 4087,
      "Ġhoping": 4088,
      "olin": 4089,
      "Ġshrimp": 4090,
      "Ġshelter": 4091,
      "Ġenthusiastic": 4092,
      "Ġcauliflower": 4093,
      "ĠRed": 4094,
      "Ġfive": 4095,
      "kelet": 4096,
      "Ġprov": 4097,
      "Ġfilm": 4098,
      "Daisy": 4099,
      "Ġpeach": 4100,
      "Ġcomet": 4101,
      "iling": 4102,
      "ĠSandy": 4103,
      "ucked": 4104,
      "Ġdishes": 4105,
      "arlie": 4106,
      "Ġfrowned": 4107,
      "reci": 4108,
      "Ġtripped": 4109,
      "Ġpoint": 4110,
      "Ġrespectful": 4111,
      "Ġenergy": 4112,
      "Bye": 4113,
      "Ġcelery": 4114,
      "Ġpipe": 4115,
      "Ġstrugg": 4116,
      "Ġmonkeys": 4117,
      "Ġquar": 4118,
      "Ġpair": 4119,
      "Ġmarched": 4120,
      "Ġsailor": 4121,
      "Ġrepair": 4122,
      "happy": 4123,
      "Ġtube": 4124,
      "Ġrhino": 4125,
      "Ġreind": 4126,
      "Ġwallet": 4127,
      "Ġspirit": 4128,
      "keleton": 4129,
      "Ġdive": 4130,
      "Ġpad": 4131,
      "Ġgro": 4132,
      "Ġbuzz": 4133,
      "Ġevening": 4134,
      "Ġappreci": 4135,
      "Ġfireman": 4136,
      "Ġairport": 4137,
      "Ġgrapes": 4138,
      "Ġeither": 4139,
      "Ġyach": 4140,
      "Ġclimbing": 4141,
      "Ġants": 4142,
      "Ġfort": 4143,
      "Ġpushes": 4144,
      "Ġrescue": 4145,
      "Ġtrains": 4146,
      "Ġdrawings": 4147,
      "Ġunlock": 4148,
      "Ġeraser": 4149,
      "azz": 4150,
      "Ġtax": 4151,
      "Ġtemp": 4152,
      "Ġped": 4153,
      "agg": 4154,
      "anda": 4155,
      "Ġtricks": 4156,
      "Ġraining": 4157,
      "Ġlions": 4158,
      "âĤ¬âĢľ": 4159,
      "Ġribb": 4160,
      "Ġthanks": 4161,
      "ron": 4162,
      "Ġiron": 4163,
      "enry": 4164,
      "Ġreef": 4165,
      "Ġmeat": 4166,
      "Ġbubble": 4167,
      "Ġmild": 4168,
      "Ġchecked": 4169,
      "Ġsurrender": 4170,
      "Ġloop": 4171,
      "Ġincl": 4172,
      "Ġstuffed": 4173,
      "Ġreindeer": 4174,
      "Ġyacht": 4175,
      "Ġskeleton": 4176,
      "Ġboots": 4177,
      "ĠTr": 4178,
      "Ġfinds": 4179,
      "Ġbears": 4180,
      "Ġbikes": 4181,
      "Ġlid": 4182,
      "anic": 4183,
      "Ġstom": 4184,
      "ĠMillie": 4185,
      "Ġcomplete": 4186,
      "ĠWhiskers": 4187,
      "Ġinsist": 4188,
      "chanic": 4189,
      "Ġvest": 4190,
      "Ġunhappy": 4191,
      "Ġstrawberry": 4192,
      "Ġleaned": 4193,
      "Ġtaxi": 4194,
      "Jenny": 4195,
      "ected": 4196,
      "Ġsweetheart": 4197,
      "Ġknot": 4198,
      "Ġvide": 4199,
      "sely": 4200,
      "reeze": 4201,
      "Ġallig": 4202,
      "Ġalive": 4203,
      "Ġchalk": 4204,
      "Ġsunset": 4205,
      "Ġappl": 4206,
      "Ġgrabs": 4207,
      "Ġtheater": 4208,
      "Ġsandbox": 4209,
      "angu": 4210,
      "Ġfle": 4211,
      "Ġlangu": 4212,
      "Ġmechanic": 4213,
      "Ġputting": 4214,
      "Ġskill": 4215,
      "Ġcube": 4216,
      "ĠPapa": 4217,
      "Ġshovel": 4218,
      "Ġsprink": 4219,
      "ĠSnow": 4220,
      "cast": 4221,
      "ccer": 4222,
      "eath": 4223,
      "ĠWould": 4224,
      "ĠRos": 4225,
      "ĠBunny": 4226,
      "ecause": 4227,
      "Daddy": 4228,
      "Ġsoccer": 4229,
      "icer": 4230,
      "Ġhaircut": 4231,
      "Ġfields": 4232,
      "Ġcable": 4233,
      "Ġbelt": 4234,
      "Ġstrip": 4235,
      "erc": 4236,
      "Ġsock": 4237,
      "Ġmarry": 4238,
      "Ġfisher": 4239,
      "ckey": 4240,
      "ĠLee": 4241,
      "Ġhockey": 4242,
      "Ġclosely": 4243,
      "Ġsaus": 4244,
      "Ġlaund": 4245,
      "Ġglove": 4246,
      "Ġsandcast": 4247,
      "Ġporch": 4248,
      "Ġmen": 4249,
      "ison": 4250,
      "Ġsheet": 4251,
      "Ġlime": 4252,
      "Ġapologized": 4253,
      "Ġlaundry": 4254,
      "Ġbul": 4255,
      "Ġwelcomed": 4256,
      "Ġcreated": 4257,
      "Ġperfectly": 4258,
      "ĠMaria": 4259,
      "Ġpeek": 4260,
      "edy": 4261,
      "play": 4262,
      "mand": 4263,
      "Ġpapers": 4264,
      "icop": 4265,
      "achel": 4266,
      "icopter": 4267,
      "Ha": 4268,
      "stead": 4269,
      "Ġweather": 4270,
      "Ġkitty": 4271,
      "Ġsoftly": 4272,
      "Ġpress": 4273,
      "Ġmama": 4274,
      "Ġrag": 4275,
      "Ġquit": 4276,
      "Ġraft": 4277,
      "Ġdisag": 4278,
      "Ġdiary": 4279,
      "Ġmotorcycle": 4280,
      "Ġkayak": 4281,
      "ĠSophie": 4282,
      "Ġshade": 4283,
      "Ġseeing": 4284,
      "ceros": 4285,
      "Ġoyster": 4286,
      "aggie": 4287,
      "Ġbulb": 4288,
      "any": 4289,
      "ĠRo": 4290,
      "Ġhelicopter": 4291,
      "Ġcrib": 4292,
      "Ġbur": 4293,
      "Ġpoem": 4294,
      "Ġblowing": 4295,
      "ween": 4296,
      "Ġrever": 4297,
      "Ġexerc": 4298,
      "Ġsneak": 4299,
      "Ġnapkin": 4300,
      "Ġattention": 4301,
      "Ġmedal": 4302,
      "Ġbetween": 4303,
      "chair": 4304,
      "Ġmule": 4305,
      "Ġjudge": 4306,
      "Ġtuna": 4307,
      "affe": 4308,
      "Ġwaving": 4309,
      "Ġlend": 4310,
      "ides": 4311,
      "ÅĵYou": 4312,
      "Ġcelebrated": 4313,
      "Grandma": 4314,
      "ories": 4315,
      "Ġdisplay": 4316,
      "Ġfalling": 4317,
      "Ġrhinoceros": 4318,
      "bul": 4319,
      "Ġlie": 4320,
      "seum": 4321,
      "Ġvend": 4322,
      "Ġpastry": 4323,
      "Ġphoto": 4324,
      "Ġpal": 4325,
      "Ġkingdom": 4326,
      "Ġmuseum": 4327,
      "Ġshouldn": 4328,
      "Ġhotel": 4329,
      "Ġchickens": 4330,
      "Ġsoil": 4331,
      "Ġbaking": 4332,
      "gen": 4333,
      "ito": 4334,
      "Ġrot": 4335,
      "Ġpole": 4336,
      "Ġsteak": 4337,
      "Ġarmchair": 4338,
      "Ġcounter": 4339,
      "Ġpetals": 4340,
      "Ġpowder": 4341,
      "Ġaer": 4342,
      "opl": 4343,
      "Ġsmells": 4344,
      "Ġaeropl": 4345,
      "una": 4346,
      "Ġtwink": 4347,
      "Ġbasketball": 4348,
      "Ġpage": 4349,
      "Ġpanda": 4350,
      "Ġfisherman": 4351,
      "Ġfreez": 4352,
      "Ġfishing": 4353,
      "Ġquarrel": 4354,
      "Ġinse": 4355,
      "Ġcane": 4356,
      "rosc": 4357,
      "Ġgolden": 4358,
      "Ġfeelings": 4359,
      "Ġtrail": 4360,
      "Ġminute": 4361,
      "Ġcardboard": 4362,
      "Ġviolin": 4363,
      "Ġgrocer": 4364,
      "Ġalligator": 4365,
      "ges": 4366,
      "unately": 4367,
      "Ġbreaks": 4368,
      "Ġradish": 4369,
      "Ġmicrosc": 4370,
      "Ġgiraffe": 4371,
      "Ġoil": 4372,
      "ense": 4373,
      "ĠWill": 4374,
      "Ġwife": 4375,
      "Ġfrogs": 4376,
      "Ġwinter": 4377,
      "Inside": 4378,
      "Ġglowing": 4379,
      "..": 4380,
      "quito": 4381,
      "Ġshoulder": 4382,
      "Ġpalace": 4383,
      "Ġmicroscope": 4384,
      "Ġstable": 4385,
      "Ġvet": 4386,
      "Ġtear": 4387,
      "Ġpresents": 4388,
      "ĠLilly": 4389,
      "Ġcups": 4390,
      "Ġimagine": 4391,
      "Ġdiscu": 4392,
      "Ġdrops": 4393,
      "Ġvendor": 4394,
      "ait": 4395,
      "eve": 4396,
      "Ġhut": 4397,
      "Ġflies": 4398,
      "Ġpassport": 4399,
      "Ġmemories": 4400,
      "Ġlawy": 4401,
      "Ġslept": 4402,
      "iture": 4403,
      "Ġshakes": 4404,
      "Ġchirp": 4405,
      "Ġflame": 4406,
      "urniture": 4407,
      "Ġheaded": 4408,
      "Ġforgotten": 4409,
      "Ġsailing": 4410,
      "iday": 4411,
      "Ġfauc": 4412,
      "Ġheads": 4413,
      "Ġeagerly": 4414,
      "Ġbananas": 4415,
      "Emma": 4416,
      "Ġfurniture": 4417,
      "Ġmos": 4418,
      "Ġplanet": 4419,
      "Ġrubber": 4420,
      "Ġswung": 4421,
      "Ġjourn": 4422,
      "Ġimagination": 4423,
      "Ġtoil": 4424,
      "aud": 4425,
      "Ġmaze": 4426,
      "Ġcherries": 4427,
      "inarian": 4428,
      "Ġoffer": 4429,
      "Ġtrave": 4430,
      "Ġambul": 4431,
      "eterinarian": 4432,
      "Ġbarks": 4433,
      "Ġmosquito": 4434,
      "ĠHarry": 4435,
      "low": 4436,
      "Ġtub": 4437,
      "ero": 4438,
      "imney": 4439,
      "Ġplayer": 4440,
      "Ġveterinarian": 4441,
      "ĠdonÃ¢": 4442,
      "Ġcrow": 4443,
      "Ġaccepted": 4444,
      "Ġskull": 4445,
      "Ġskirt": 4446,
      "Ġsprayed": 4447,
      "Today": 4448,
      "Ġjellyfish": 4449,
      "Ġfaucet": 4450,
      "Ġbreeze": 4451,
      "place": 4452,
      "Ġshower": 4453,
      "Ġdancer": 4454,
      "Ġceiling": 4455,
      "Ġavocado": 4456,
      "Ġstaff": 4457,
      "Ġchimney": 4458,
      "Ġmystery": 4459,
      "Ġplastic": 4460,
      "izes": 4461,
      "ippery": 4462,
      "ĠUn": 4463,
      "Ġflea": 4464,
      "Ġlanguage": 4465,
      "Ġtoilet": 4466,
      "Eventually": 4467,
      "Ġdressed": 4468,
      "Ġstraight": 4469,
      "Ġtriangle": 4470,
      "Next": 4471,
      "liday": 4472,
      "ues": 4473,
      "Ġholiday": 4474,
      "Ġslippery": 4475,
      "Ġmagaz": 4476,
      "Ġjournal": 4477,
      "Ch": 4478,
      "Ġlives": 4479,
      "urch": 4480,
      "Ġbaseball": 4481,
      "Ġambulance": 4482,
      "tress": 4483,
      "Ġreve": 4484,
      "Ġmattress": 4485,
      "Ġlawyer": 4486,
      "nger": 4487,
      "ĠKate": 4488,
      "elcome": 4489,
      "Ġmop": 4490,
      "Ġshouting": 4491,
      "ngth": 4492,
      "ĠInstead": 4493,
      "Ġstud": 4494,
      "Ġignored": 4495,
      "Ġcheek": 4496,
      "Ġstrength": 4497,
      "Ġinvest": 4498,
      "Ġitch": 4499,
      "Ġink": 4500,
      "ents": 4501,
      "rod": 4502,
      "Ġintrod": 4503,
      "Ġaeroplane": 4504,
      "Ġpine": 4505,
      "bbie": 4506,
      "Ġprevent": 4507,
      "Ġattach": 4508,
      "Ġrelaxed": 4509,
      "Ġseparate": 4510,
      "Ġapplaud": 4511,
      "Ġinvestig": 4512,
      "Ġsince": 4513,
      "Ġseas": 4514,
      "Ġworth": 4515,
      "Ġbury": 4516,
      "Ġcollected": 4517,
      "Ġclassroom": 4518,
      "uby": 4519,
      "Ġble": 4520,
      "Ġlawn": 4521,
      "ĠBaby": 4522,
      "Together": 4523,
      "Ġpirates": 4524,
      "ĠRosie": 4525,
      "Ġinf": 4526,
      "asis": 4527,
      "Ġbouncing": 4528,
      "Ġpuddles": 4529,
      "Ġsurround": 4530,
      "case": 4531,
      "asher": 4532,
      "washer": 4533,
      "Ġhar": 4534,
      "Ġsque": 4535,
      "anges": 4536,
      "Ġpinch": 4537,
      "Ġsung": 4538,
      "Ġfireplace": 4539,
      "Ġmarried": 4540,
      "Ġmeeting": 4541,
      "Ġdishwasher": 4542,
      "Ġyogurt": 4543,
      "lass": 4544,
      "Ġhappens": 4545,
      "Ġfog": 4546,
      "Ġbelongs": 4547,
      "ĠOr": 4548,
      "Ġwool": 4549,
      "Ġweep": 4550,
      "Ġburned": 4551,
      "Ġhanging": 4552,
      "Ġoasis": 4553,
      "Ġwriting": 4554,
      "Ġsquirrels": 4555,
      "Ġmistakes": 4556,
      "Ġwhisper": 4557,
      "ĠAnnie": 4558,
      "Ġpopped": 4559,
      "Ġmoves": 4560,
      "Ġargue": 4561,
      "Ġsniffed": 4562,
      "ives": 4563,
      "Ġaut": 4564,
      "ĠSu": 4565,
      "Ġyield": 4566,
      "Ġcob": 4567,
      "iately": 4568,
      "te": 4569,
      "Ġsir": 4570,
      "Your": 4571,
      "reek": 4572,
      "Ġdoors": 4573,
      "mediately": 4574,
      "Ġnovel": 4575,
      "ssible": 4576,
      "Ġflapped": 4577,
      "Ġgrin": 4578,
      "orses": 4579,
      "Ġfreezer": 4580,
      "Because": 4581,
      "Ġcreek": 4582,
      "ĠTony": 4583,
      "Ġgym": 4584,
      "une": 4585,
      "ĠBun": 4586,
      "Ġimprove": 4587,
      "chie": 4588,
      "Ġinvestigate": 4589,
      "Ġhorses": 4590,
      "ĠSee": 4591,
      "Ġpoke": 4592,
      "Ġward": 4593,
      "Ġsteam": 4594,
      "Ġblankets": 4595,
      "Ġthrowing": 4596,
      "web": 4597,
      "Ġchoice": 4598,
      "Ġscolded": 4599,
      "Ġwardrobe": 4600,
      "Ġpra": 4601,
      "Ġchess": 4602,
      "Thanks": 4603,
      "Ġhopes": 4604,
      "Ġbelow": 4605,
      "Ġparent": 4606,
      "ler": 4607,
      "ising": 4608,
      "Ġknown": 4609,
      "Ġagre": 4610,
      "Ġpoints": 4611,
      "Ġalarm": 4612,
      "Ġnews": 4613,
      "Ġcrawling": 4614,
      "Ġinsect": 4615,
      "ĠIÃ¢": 4616,
      "hero": 4617,
      "Ġzipper": 4618,
      "hic": 4619,
      "Ġpit": 4620,
      "Ġeaten": 4621,
      "Ġdear": 4622,
      "Ġentered": 4623,
      "Ġfolder": 4624,
      "Ġscrew": 4625,
      "Ġsuperhero": 4626,
      "imi": 4627,
      "ĠitÃ¢": 4628,
      "Ġrequ": 4629,
      "Ġquack": 4630,
      "Ġappro": 4631,
      "Ġvehic": 4632,
      "Ġcrossed": 4633,
      "ites": 4634,
      "chor": 4635,
      "Ġgreedy": 4636,
      "Ġsticky": 4637,
      "ÅĵItÃ¢": 4638,
      "Ġpenguin": 4639,
      "Ġcobweb": 4640,
      "right": 4641,
      "Ġwigg": 4642,
      "Ġcomplain": 4643,
      "house": 4644,
      "ĠJul": 4645,
      "Ġfactor": 4646,
      "Ġmustache": 4647,
      "Ġthrows": 4648,
      "lasses": 4649,
      "men": 4650,
      "vision": 4651,
      "Ġig": 4652,
      "Ġamazement": 4653,
      "ĠRachel": 4654,
      "Ġapart": 4655,
      "Ġsunglasses": 4656,
      "Ġigloo": 4657,
      "inked": 4658,
      "Ġchurch": 4659,
      "rs": 4660,
      "Ġstro": 4661,
      "Ġminer": 4662,
      "Ġsqueezed": 4663,
      "Ġherb": 4664,
      "ety": 4665,
      "Ġrake": 4666,
      "Ġopera": 4667,
      "Ġconf": 4668,
      "Ġsplashing": 4669,
      "Ġfactory": 4670,
      "Ġcared": 4671,
      "Ġfiref": 4672,
      "fortunately": 4673,
      "Ġregret": 4674,
      "ĠBet": 4675,
      "Ġairpl": 4676,
      "Ġveil": 4677,
      "Ġshrugged": 4678,
      "Ġfile": 4679,
      "Ġwipe": 4680,
      "mend": 4681,
      "rm": 4682,
      "ĊĠ": 4683,
      "Ġshrink": 4684,
      "Ġtelevision": 4685,
      "sit": 4686,
      "Ġfought": 4687,
      "Ġcell": 4688,
      "ores": 4689,
      "Ġboot": 4690,
      "Ġpear": 4691,
      "ups": 4692,
      "Ġrequest": 4693,
      "Ġbother": 4694,
      "omob": 4695,
      "Ġoak": 4696,
      "aces": 4697,
      "Ġfloat": 4698,
      "ring": 4699,
      "Ġthumb": 4700,
      "Ġswamp": 4701,
      "Ġincre": 4702,
      "Ġautomob": 4703,
      "mm": 4704,
      "ommend": 4705,
      "Ġbookcase": 4706,
      "Ġdemand": 4707,
      "Ġquietly": 4708,
      "ab": 4709,
      "lier": 4710,
      "Ġsuff": 4711,
      "Ġtherm": 4712,
      "Ġcaring": 4713,
      "Ġrecommend": 4714,
      "Ġanchor": 4715,
      "Ġknob": 4716,
      "Ġrail": 4717,
      "Mandy": 4718,
      "ĠJess": 4719,
      "Ġgrill": 4720,
      "Ġrooms": 4721,
      "Ġsparkle": 4722,
      "aw": 4723,
      "Ġsizes": 4724,
      "Ġpur": 4725,
      "atie": 4726,
      "Ġvac": 4727,
      "Ġringing": 4728,
      "Ġsqueeze": 4729,
      "'.": 4730,
      "Ġtucked": 4731,
      "ĠHelp": 4732,
      "Ġraz": 4733,
      "Ġsparkling": 4734,
      "Ġeasily": 4735,
      "Ġyoga": 4736,
      "Ġweigh": 4737,
      "Ġagree": 4738,
      "Sammy": 4739,
      "Ġsupply": 4740,
      "ĠGod": 4741,
      "uckily": 4742,
      "Ġblinked": 4743,
      "Ġthermomet": 4744,
      "amber": 4745,
      "Ġspear": 4746,
      "Ġsurprises": 4747,
      "Ġdelay": 4748,
      "Ġsafety": 4749,
      "ĠCharlie": 4750,
      "Ġrefre": 4751,
      "nam": 4752,
      "Ġhelper": 4753,
      "Ġblackboard": 4754,
      "Ġlemonade": 4755,
      "omes": 4756,
      "Ġmakeup": 4757,
      "Ġhills": 4758,
      "tain": 4759,
      "Ġbravely": 4760,
      "Ġunif": 4761,
      "Ġspending": 4762,
      "ĠTrue": 4763,
      "Ġvideo": 4764,
      "vet": 4765,
      "Ġtrusted": 4766,
      "Ġwandered": 4767,
      "Ġwags": 4768,
      "ĠDanny": 4769,
      "Ġlaught": 4770,
      "Ġmagazine": 4771,
      "Ġtug": 4772,
      "Ġhurting": 4773,
      "Ġteleph": 4774,
      "Ann": 4775,
      "Wait": 4776,
      "raged": 4777,
      "Ġmusician": 4778,
      "Ġvanished": 4779,
      "Ġcherry": 4780,
      "Ġjunk": 4781,
      "Ġearlier": 4782,
      "Ġthermometer": 4783,
      "Ġuniform": 4784,
      "cakes": 4785,
      "Ġreaches": 4786,
      "Ġquiz": 4787,
      "Ġletting": 4788,
      "Ġfallen": 4789,
      "Ġdisappear": 4790,
      "Ġmint": 4791,
      "Ġbattery": 4792,
      "Ġlaughter": 4793,
      "Ġtelephone": 4794,
      "Ġwaste": 4795,
      "ĠTed": 4796,
      "Ġsaving": 4797,
      "icing": 4798,
      "Ġcliff": 4799,
      "bor": 4800,
      "oral": 4801,
      "fume": 4802,
      "Ġprop": 4803,
      "Ġornam": 4804,
      "Ġraise": 4805,
      "Ġkisses": 4806,
      "Ġticket": 4807,
      "Ġtemple": 4808,
      "Ġisn": 4809,
      "Ġfastest": 4810,
      "Ġkeeping": 4811,
      "Ġunderstanding": 4812,
      "Ġapron": 4813,
      "Ġdestination": 4814,
      "Ġrazor": 4815,
      "ived": 4816,
      "Ġport": 4817,
      "Ġspade": 4818,
      "Ġhardly": 4819,
      "Ġflutter": 4820,
      "Ġskills": 4821,
      "Ġtoes": 4822,
      "Ġberry": 4823,
      "Ġyucky": 4824,
      "Ġperfume": 4825,
      "Ġcastles": 4826,
      "Ġbeef": 4827,
      "Ġserve": 4828,
      "Ġstrawberries": 4829,
      "Ġsettled": 4830,
      "ction": 4831,
      "Did": 4832,
      "Ġitem": 4833,
      "Ġrise": 4834,
      "ĠNext": 4835,
      "Ġmailman": 4836,
      "Ġprepare": 4837,
      "Ġinfant": 4838,
      "ĠEach": 4839,
      "Ġpoked": 4840,
      "Ġimmediately": 4841,
      "Ġfollowing": 4842,
      "ggy": 4843,
      "ĠClara": 4844,
      "Ġexperience": 4845,
      "ium": 4846,
      "Ġtong": 4847,
      "Ġdire": 4848,
      "Ġpalm": 4849,
      "Ġchamber": 4850,
      "Ġkneel": 4851,
      "Ġmuffin": 4852,
      "Ġvroom": 4853,
      "Ġchairs": 4854,
      "Ġinstr": 4855,
      "Ġscattered": 4856,
      "Ġharbor": 4857,
      "Ġlotion": 4858,
      "Ġoranges": 4859,
      "Ġremove": 4860,
      "Ġfollows": 4861,
      "Ġcabinet": 4862,
      "Ġdried": 4863,
      "âĤ¬.": 4864,
      "Ġcrash": 4865,
      "Ġhearts": 4866,
      "Ġblueberries": 4867,
      "Ġtut": 4868,
      "Ġweap": 4869,
      "ĠJames": 4870,
      "Ġleak": 4871,
      "Ġdresses": 4872,
      "Ġautomobile": 4873,
      "Ġwine": 4874,
      "ĠIts": 4875,
      "Ġwarmth": 4876,
      "Ġspots": 4877,
      "With": 4878,
      "Will": 4879,
      "Ġcalls": 4880,
      "Ġenter": 4881,
      "ĠSnowy": 4882,
      "Ġpraised": 4883,
      "Ġburied": 4884,
      "Ġgrowled": 4885,
      "Ġreverse": 4886,
      "Ġtrade": 4887,
      "Ġclaws": 4888,
      "ampoo": 4889,
      "Ġsnap": 4890,
      "Ġbeans": 4891,
      "Ġbeamed": 4892,
      "ĠWho": 4893,
      "Ġmatches": 4894,
      "Ġmoments": 4895,
      "Ġadmir": 4896,
      "Ġshooting": 4897,
      "sing": 4898,
      "ĠHenry": 4899,
      "Ġplates": 4900,
      "Ġscooped": 4901,
      "Ġcoal": 4902,
      "Ġpuzzles": 4903,
      "Qu": 4904,
      "ib": 4905,
      "Ġremain": 4906,
      "Ġfloating": 4907,
      "Ġvacation": 4908,
      "Ġpist": 4909,
      "Ġpride": 4910,
      "asp": 4911,
      "izard": 4912,
      "Ġbrain": 4913,
      "Ġpistol": 4914,
      "ah": 4915,
      "Ġdaisy": 4916,
      "lend": 4917,
      "sters": 4918,
      "alley": 4919,
      "Ġpoison": 4920,
      "Ġideas": 4921,
      "Ġexercise": 4922,
      "Ġlumber": 4923,
      "Ġpanic": 4924,
      "Is": 4925,
      "Ġsigh": 4926,
      "aped": 4927,
      "ival": 4928,
      "Welcome": 4929,
      "Ġrow": 4930,
      "ionary": 4931,
      "Ġmass": 4932,
      "osity": 4933,
      "Ġsimp": 4934,
      "anna": 4935,
      "Ġcalend": 4936,
      "Ġignore": 4937,
      "Ġbalan": 4938,
      "Ġcuddled": 4939,
      "ictionary": 4940,
      "Ġshampoo": 4941,
      "Ġdrain": 4942,
      "Ġdestroyed": 4943,
      "Ġcalendar": 4944,
      "Ġpages": 4945,
      "Ġmyself": 4946,
      "Lisa": 4947,
      "Ġachie": 4948,
      "Ġdictionary": 4949,
      "ĠMay": 4950,
      "Ġvalley": 4951,
      "Ġdifferen": 4952,
      "Ġrestore": 4953,
      "Ġyawned": 4954,
      "Ġribbon": 4955,
      "Peter": 4956,
      "big": 4957,
      "Ġga": 4958,
      "Ġrabbits": 4959,
      "Ġtaller": 4960,
      "Ġworms": 4961,
      "Ġcandles": 4962,
      "Ġjewelry": 4963,
      "omeday": 4964,
      "'ve": 4965,
      "osed": 4966,
      "ari": 4967,
      "Ġinclud": 4968,
      "Ġairplane": 4969,
      "Ġjazz": 4970,
      "ĠSpike": 4971,
      "Ġmelted": 4972,
      "Ġwaffle": 4973,
      "Ġinsisted": 4974,
      "Ġequ": 4975,
      "Ġstad": 4976,
      "ĠKing": 4977,
      "Ġapproached": 4978,
      "Ġstadium": 4979,
      "Ġdigg": 4980,
      "Ġgear": 4981,
      "Ġsnapped": 4982,
      "Ġcaptain": 4983,
      "Ġwashing": 4984,
      "Ġlicks": 4985,
      "ission": 4986,
      "Ġdigging": 4987,
      "Jen": 4988,
      "ls": 4989,
      "Ġsty": 4990,
      "Ġstruc": 4991,
      "Ġpermission": 4992,
      "bigail": 4993,
      "Ġstructure": 4994,
      "Ġbill": 4995,
      "Ġhomes": 4996,
      "Ġfest": 4997,
      "ĠJoy": 4998,
      "ĠCo": 4999,
      "Ġmissile": 5000,
      "Ġpatiently": 5001,
      "nies": 5002,
      "riger": 5003,
      "ĠMiss": 5004,
      "ĠMimi": 5005,
      "xture": 5006,
      "Ġfloated": 5007,
      "Ġinvite": 5008,
      "Ġrefriger": 5009,
      "Ġmeasured": 5010,
      "Ġrefrigerator": 5011,
      "Ġwizard": 5012,
      "ishing": 5013,
      "Ġsandcastle": 5014,
      "Ġsomeday": 5015,
      "Ġbegged": 5016,
      "Ġshot": 5017,
      "ĠDan": 5018,
      "antly": 5019,
      "Ġplanes": 5020,
      "Ġsub": 5021,
      "ĠBefore": 5022,
      "Ġweeks": 5023,
      "Ġvehicle": 5024,
      "Ġcrunch": 5025,
      "ĠRuby": 5026,
      "Ġbelieved": 5027,
      "ĠFreddy": 5028,
      "Ġsetting": 5029,
      "Ġsigns": 5030,
      "Ġreceived": 5031,
      "Ġres": 5032,
      "Ġalright": 5033,
      "ĠSteve": 5034,
      "Ġtongue": 5035,
      "Ġtutor": 5036,
      "Yuck": 5037,
      "Ġnone": 5038,
      "Ġexamine": 5039,
      "Ġfuel": 5040,
      "Ġstruggling": 5041,
      "All": 5042,
      "Ġsport": 5043,
      "Ġblood": 5044,
      "Ġteaching": 5045,
      "Ġsolved": 5046,
      "Ġsneeze": 5047,
      "Ġbumped": 5048,
      "Ġolive": 5049,
      "ops": 5050,
      "inky": 5051,
      "Ġmodel": 5052,
      "Ġscratch": 5053,
      "Fl": 5054,
      "Ġhers": 5055,
      "Ġblouse": 5056,
      "Ġparts": 5057,
      "Ġencouraged": 5058,
      "Ġbreathe": 5059,
      "Ġdiscuss": 5060,
      "Ġshed": 5061,
      "Ġchores": 5062,
      "Ġthrilled": 5063,
      "ĠRe": 5064,
      "Ġcoats": 5065,
      "Ġjewels": 5066,
      "Ġgrape": 5067,
      "Ġappreciate": 5068,
      "Ġtide": 5069,
      "Ġinvit": 5070,
      "ĠV": 5071,
      "Ġtore": 5072,
      "Ġlily": 5073,
      "Ġmention": 5074,
      "Ġplays": 5075,
      "Ġhits": 5076,
      "Ġbuzzing": 5077,
      "Ġchirping": 5078,
      "fy": 5079,
      "Ġdare": 5080,
      "Ġscore": 5081,
      "ĠPenny": 5082,
      "Ġpaused": 5083,
      "Ġpulling": 5084,
      "Johnny": 5085,
      "Ġbookshe": 5086,
      "Ġdeeper": 5087,
      "Ġbathe": 5088,
      "Ġcollecting": 5089,
      "Ġmarbles": 5090,
      "Ġbleed": 5091,
      "Ġbang": 5092,
      "Ġgust": 5093,
      "Ġunite": 5094,
      "Ġsparkles": 5095,
      "Ġstomach": 5096,
      "Ġnation": 5097,
      "Ġupstairs": 5098,
      "Ġprovide": 5099,
      "Ġsew": 5100,
      "Ġsupposed": 5101,
      "Ġburning": 5102,
      "Ġpunish": 5103,
      "Ġsausage": 5104,
      "Ġdifference": 5105,
      "Mark": 5106,
      "Ġjail": 5107,
      "Ġcub": 5108,
      "Ġclimbs": 5109,
      "iers": 5110,
      "htray": 5111,
      "Ġashtray": 5112,
      "Ġsunlight": 5113,
      "ĠEveryday": 5114,
      "Ġglowed": 5115,
      "ÅĵNo": 5116,
      "Ġattached": 5117,
      "Ġneighborhood": 5118,
      "fied": 5119,
      "uggage": 5120,
      "Ġlabel": 5121,
      "Ġtornado": 5122,
      "Ġfestival": 5123,
      "Not": 5124,
      "Ġluggage": 5125,
      "Ġwhip": 5126,
      "Ġnewsp": 5127,
      "ĠBuzz": 5128,
      "ĠPeople": 5129,
      "Ġreplace": 5130,
      "Ġwhistling": 5131,
      "Ġnewspap": 5132,
      "ĠHave": 5133,
      "allen": 5134,
      "Ġgirls": 5135,
      "Ġmanage": 5136,
      "ĠFo": 5137,
      "Ġjogging": 5138,
      "Ġteasp": 5139,
      "Ġwarning": 5140,
      "Ġteaspoon": 5141,
      "Ġhesit": 5142,
      "Ġeff": 5143,
      "These": 5144,
      "Ġlic": 5145,
      "ĠMaggie": 5146,
      "umble": 5147,
      "Ġbirdc": 5148,
      "Ġfasc": 5149,
      "Ġgifts": 5150,
      "Ġdiscovery": 5151,
      "Ġroot": 5152,
      "emember": 5153,
      "Ġtwisted": 5154,
      "Ġbookshelf": 5155,
      "Ġbirdcage": 5156,
      "act": 5157,
      "eed": 5158,
      "Ġmeowed": 5159,
      "Ġchallen": 5160,
      "Ġweapon": 5161,
      "Ġsip": 5162,
      "ĠTina": 5163,
      "Ġlaid": 5164,
      "Ġoper": 5165,
      "Ġcollection": 5166,
      "Ġcomfy": 5167,
      "Ġguy": 5168,
      "xy": 5169,
      "ĠLuna": 5170,
      "Ġdrinking": 5171,
      "Ġsafari": 5172,
      "Ġrush": 5173,
      "Ġsoldiers": 5174,
      "Ġbricks": 5175,
      "Ġrepeat": 5176,
      "Ġfut": 5177,
      "Ġemer": 5178,
      "ĠIs": 5179,
      "Ġranch": 5180,
      "Ġelephants": 5181,
      "Ġactually": 5182,
      "ities": 5183,
      "Ġstitch": 5184,
      "Ġremained": 5185,
      "Ġfuture": 5186,
      "Ġhanger": 5187,
      "Ġlick": 5188,
      "Ġchir": 5189,
      "Before": 5190,
      "bers": 5191,
      "Ġmall": 5192,
      "Ġgain": 5193,
      "Ġbeg": 5194,
      "Ġwatered": 5195,
      "Ġgrey": 5196,
      "ĠGood": 5197,
      "Ġsits": 5198,
      "Ġdecorations": 5199,
      "Ġawe": 5200,
      "Ġblueberry": 5201,
      "Ġmassage": 5202,
      "Ġfascin": 5203,
      "Ġchirped": 5204,
      "rise": 5205,
      "ĠLater": 5206,
      "Ġmeasuring": 5207,
      "do": 5208,
      "Ġscur": 5209,
      "Ġflood": 5210,
      "Ġcurled": 5211,
      "Ġurge": 5212,
      "Ġsprinkles": 5213,
      "Ġgrocery": 5214,
      "nie": 5215,
      "Ġbak": 5216,
      "Ġrhy": 5217,
      "Ġprayed": 5218,
      "allow": 5219,
      "Ġdecision": 5220,
      "ĠChirp": 5221,
      "Ġpatterns": 5222,
      "mother": 5223,
      "bbled": 5224,
      "ipment": 5225,
      "Ġwherever": 5226,
      "Ġcontain": 5227,
      "Ġbites": 5228,
      "Ġlicense": 5229,
      "Ġsore": 5230,
      "Ġwatches": 5231,
      "Ġfixing": 5232,
      "Ġsatis": 5233,
      "Ġbuildings": 5234,
      "Ġproblems": 5235,
      "Ġequipment": 5236,
      "oved": 5237,
      "Ġprice": 5238,
      "walk": 5239,
      "Ġtoe": 5240,
      "Ġfireworks": 5241,
      "Ġobserve": 5242,
      "Ok": 5243,
      "Ġcrunchy": 5244,
      "Ġfed": 5245,
      "Ġlect": 5246,
      "Ġworse": 5247,
      "Ġtease": 5248,
      "Ġraised": 5249,
      "Ġcrashed": 5250,
      "Ġeasier": 5251,
      "sity": 5252,
      "utty": 5253,
      "Ġsunrise": 5254,
      "Ġzero": 5255,
      "Ġvel": 5256,
      "Emily": 5257,
      "Ġnewspaper": 5258,
      "Ġcakes": 5259,
      "Ġsoared": 5260,
      "Ġinvitation": 5261,
      "Ġlecture": 5262,
      "Ġvelvet": 5263,
      "Mmm": 5264,
      "ude": 5265,
      "Ġduring": 5266,
      "Ġpigs": 5267,
      "Ġwhistled": 5268,
      "Ġsliding": 5269,
      "Ġmemory": 5270,
      "Ġsuffer": 5271,
      "\",": 5272,
      "Ġracing": 5273,
      "Ġpeanuts": 5274,
      "Ġreceive": 5275,
      "Ġgrinned": 5276,
      "Ġeffort": 5277,
      "!'": 5278,
      "ging": 5279,
      "Ġflav": 5280,
      "thm": 5281,
      "Ġsidewalk": 5282,
      "Ġbathrobe": 5283,
      "Ġstrang": 5284,
      "Ġclearing": 5285,
      "ÅĵThatÃ¢": 5286,
      "Ġrefreshed": 5287,
      "Ġmitten": 5288,
      "seek": 5289,
      "Ġtremb": 5290,
      "Ġpeered": 5291,
      "Ġzipped": 5292,
      "Ġplanted": 5293,
      "Ġearthqu": 5294,
      "Ġrecognized": 5295,
      "Ouch": 5296,
      "Ġbes": 5297,
      "Ġbeat": 5298,
      "Ġsocks": 5299,
      "Ġdoggy": 5300,
      "Ġskipping": 5301,
      "Ġappear": 5302,
      "Ġmarching": 5303,
      "ĠOllie": 5304,
      "Ġwre": 5305,
      "Ġwid": 5306,
      "Ġremem": 5307,
      "Ġturning": 5308,
      "Ġchewed": 5309,
      "Ġcartoons": 5310,
      "Ġsurrounded": 5311,
      "cles": 5312,
      "uing": 5313,
      "Ġwarn": 5314,
      "Ġbrick": 5315,
      "Ġsimple": 5316,
      "Ġbillboard": 5317,
      "cious": 5318,
      "Ġcompany": 5319,
      "Ġrespons": 5320,
      "Ġtracks": 5321,
      "Ġremembers": 5322,
      "Jake": 5323,
      "son": 5324,
      "Ġrust": 5325,
      "ĠMat": 5326,
      "Ġspit": 5327,
      "Ġbrus": 5328,
      "Ġhated": 5329,
      "Ġpastel": 5330,
      "ÅĵIÃ¢": 5331,
      "Ġhurric": 5332,
      "Ġrhythm": 5333,
      "oming": 5334,
      "Ġonwards": 5335,
      "aded": 5336,
      "Ġpossible": 5337,
      "Ġrested": 5338,
      "Ġbuckle": 5339,
      "Ġsnail": 5340,
      "Ġfirefight": 5341,
      "Ġheat": 5342,
      "Ġescaped": 5343,
      "Ġdinosaurs": 5344,
      "Ġadmiring": 5345,
      "Ġstrangers": 5346,
      "Ġleather": 5347,
      "Ġslice": 5348,
      "Ġordered": 5349,
      "Ġuniverse": 5350,
      "Ġoperation": 5351,
      "Ġhurricane": 5352,
      "Ġworks": 5353,
      "Ġlands": 5354,
      "Ġmountains": 5355,
      "Ġtomatoes": 5356,
      "Ġuniversity": 5357,
      "Ġmineral": 5358,
      "Ġpitch": 5359,
      "Ġhappiest": 5360,
      "Ġwanting": 5361,
      "!\",": 5362,
      "Ġours": 5363,
      "Ġcontinue": 5364,
      "Ġtwigs": 5365,
      "Ġdisagreed": 5366,
      "Ġbeside": 5367,
      "ĠMilly": 5368,
      "Ġhurried": 5369,
      "Moral": 5370,
      "Ġhate": 5371,
      "atch": 5372,
      "Ġnavy": 5373,
      "amie": 5374,
      "ĠMe": 5375,
      "Ġweren": 5376,
      "Ġrevealed": 5377,
      "Ġstyle": 5378,
      "loe": 5379,
      "Ġrained": 5380,
      "Ġperched": 5381,
      "Ġseats": 5382,
      "unday": 5383,
      "apping": 5384,
      "Ġobe": 5385,
      "Ġspaces": 5386,
      "Ġserved": 5387,
      "Ġfolded": 5388,
      "Ġprepared": 5389,
      "Ġoats": 5390,
      "Ġreminder": 5391,
      "Ġmenu": 5392,
      "ases": 5393,
      "Ġshopping": 5394,
      "Ġmouths": 5395,
      "Ġselling": 5396,
      "Ġagreement": 5397,
      "Ġearthquake": 5398,
      "cc": 5399,
      "adly": 5400,
      "Ġweight": 5401,
      "Ġpoppy": 5402,
      "Ġbrand": 5403,
      "Ġcrept": 5404,
      "Ġpracticing": 5405,
      "Would": 5406,
      "ĠSunday": 5407,
      "Ġkeeper": 5408,
      "Ġbringing": 5409,
      "Ġpupil": 5410,
      "hest": 5411,
      "Ġevent": 5412,
      "ddy": 5413,
      "ĠLiz": 5414,
      "Ġpaints": 5415,
      "Ġsecrets": 5416,
      "Ġcircus": 5417,
      "Ġwisdom": 5418,
      "Ġsings": 5419,
      "Ġfash": 5420,
      "Ġkindly": 5421,
      "Ġmonsters": 5422,
      "Ġanswers": 5423,
      "mble": 5424,
      "enty": 5425,
      "Ġeveryday": 5426,
      "Ġslip": 5427,
      "Ġpetted": 5428,
      "Ġdrinks": 5429,
      "Ġsettle": 5430,
      "Ġmister": 5431,
      "amb": 5432,
      "indy": 5433,
      "ĠFro": 5434,
      "Ġfamil": 5435,
      "ÅĵWe": 5436,
      "Ġspoons": 5437,
      "Sh": 5438,
      "Tweet": 5439,
      "Yum": 5440,
      "dam": 5441,
      "ĠAbigail": 5442,
      "Ġcopper": 5443,
      "Ġanytime": 5444,
      "Ġimage": 5445,
      "ĠNutty": 5446,
      "Ġcuriosity": 5447,
      "Ġswims": 5448,
      "Ġprecious": 5449,
      "Ġsneezed": 5450,
      "Ġobey": 5451,
      "Susie": 5452,
      "Ġbrings": 5453,
      "Ġrang": 5454,
      "Ġmuddy": 5455,
      "Ġtalent": 5456,
      "Ġguessed": 5457,
      "igz": 5458,
      "Ġspill": 5459,
      "Ġtrapped": 5460,
      "Ġcomple": 5461,
      "Ġvisiting": 5462,
      "len": 5463,
      "Ġbare": 5464,
      "Ġtremble": 5465,
      "Ġgotten": 5466,
      "Ġcutting": 5467,
      "Ġvillag": 5468,
      "Ġapologize": 5469,
      "Ġscratched": 5470,
      "Ġpotatoes": 5471,
      "Ġbeneath": 5472,
      "ĠSomeone": 5473,
      "Ro": 5474,
      "ĠTiny": 5475,
      "Ġpedal": 5476,
      "ĠBetsy": 5477,
      "Ġsubway": 5478,
      "Le": 5479,
      "tory": 5480,
      "Ġhistory": 5481,
      "Ġweighed": 5482,
      "Ġstruggled": 5483,
      "ĠZoe": 5484,
      "Ġpermit": 5485,
      "Ġolives": 5486,
      "Ready": 5487,
      "Ġitems": 5488,
      "Ex": 5489,
      "Ġx": 5490,
      "ĠJe": 5491,
      "Ġknelt": 5492,
      "Ġmeow": 5493,
      "Ġflap": 5494,
      "Ġbeds": 5495,
      "Ġwaits": 5496,
      "ĠKatie": 5497,
      "Ġfashion": 5498,
      "Ġcal": 5499,
      "Ġglitter": 5500,
      "Ġcreation": 5501,
      "ĠNot": 5502,
      "Ġpillows": 5503,
      "ding": 5504,
      "ley": 5505,
      "ĠHoppy": 5506,
      "Ġofficer": 5507,
      "ĠLetÃ¢": 5508,
      "Ġwaffles": 5509,
      "Really": 5510,
      "ĠChirpy": 5511,
      "terday": 5512,
      "anta": 5513,
      "izing": 5514,
      "Ġcatching": 5515,
      "Ġactiv": 5516,
      "Ġargued": 5517,
      "Ġsucceeded": 5518,
      "Ġcostumes": 5519,
      "Ġpadd": 5520,
      "neath": 5521,
      "Ġsix": 5522,
      "Ġbones": 5523,
      "Ġmice": 5524,
      "riage": 5525,
      "ĠCat": 5526,
      "Ġgrandmother": 5527,
      "Ġornament": 5528,
      "First": 5529,
      "Ġscoop": 5530,
      "Ġbowed": 5531,
      "Ġscreams": 5532,
      "Ġzooming": 5533,
      "Ġneighbourhood": 5534,
      "Ġfascinated": 5535,
      "Ġvillagers": 5536,
      "Dave": 5537,
      "uke": 5538,
      "Ġbun": 5539,
      "Ġarea": 5540,
      "ĠFirst": 5541,
      "Ġexamined": 5542,
      "looking": 5543,
      "Ġlips": 5544,
      "Fluffy": 5545,
      "Ġexact": 5546,
      "Ġlets": 5547,
      "Ġstudied": 5548,
      "Ġpeel": 5549,
      "Ġglo": 5550,
      "ĠCla": 5551,
      "joyed": 5552,
      "Ġshadows": 5553,
      "rin": 5554,
      "Ġsoaring": 5555,
      "Ġoverjoyed": 5556,
      "ÅĵThank": 5557,
      "Ġcomforted": 5558,
      "Ġpinched": 5559,
      "xygen": 5560,
      "Ġbegin": 5561,
      "Ġwaist": 5562,
      "etch": 5563,
      "Ġwhatever": 5564,
      "Ġpets": 5565,
      "Ġfreeze": 5566,
      "ĠHowever": 5567,
      "igzag": 5568,
      "Ġsitu": 5569,
      "Ġlemons": 5570,
      "Ġspaceship": 5571,
      "Ġgained": 5572,
      "Ġrides": 5573,
      "Ġencourage": 5574,
      "kins": 5575,
      "Ġdecides": 5576,
      "Ġvowed": 5577,
      "Ġtune": 5578,
      "ĠRemy": 5579,
      "omething": 5580,
      "Ġbrushed": 5581,
      "Ġsadness": 5582,
      "Ġdisturbed": 5583,
      "ĠSuzy": 5584,
      "Ġwreck": 5585,
      "Luckily": 5586,
      "ears": 5587,
      "gers": 5588,
      "Ġtip": 5589,
      "icorn": 5590,
      "Ġunicorn": 5591,
      "Ġbunnies": 5592,
      "Ġstruck": 5593,
      "ĠPoppy": 5594,
      "avid": 5595,
      "Andy": 5596,
      "Ġsting": 5597,
      "Ġoutdo": 5598,
      "Ġwooden": 5599,
      "Ġdrift": 5600,
      "Ġpancakes": 5601,
      "ien": 5602,
      "ĠOnce": 5603,
      "Ġallow": 5604,
      "Ġwond": 5605,
      "Ġaccidents": 5606,
      "Ġmarkers": 5607,
      "Ġeagle": 5608,
      "Ġsatisfied": 5609,
      "Ġlines": 5610,
      "Ġoxygen": 5611,
      "ays": 5612,
      "Ġneighbors": 5613,
      "ĠChr": 5614,
      "Ġrecognize": 5615,
      "Sometimes": 5616,
      "Ġripped": 5617,
      "ĠAm": 5618,
      "Ġaccom": 5619,
      "Ġspiders": 5620,
      "Ġnails": 5621,
      "ĠSharing": 5622,
      "Ġstripes": 5623,
      "ĠCoco": 5624,
      "Ġbleeding": 5625,
      "Ġgloves": 5626,
      "Ġbrid": 5627,
      "isten": 5628,
      "Ġpretti": 5629,
      "Ġunderground": 5630,
      "Ġguns": 5631,
      "Ġprettiest": 5632,
      "ales": 5633,
      "Ġtour": 5634,
      "ĠBeth": 5635,
      "Ġslapped": 5636,
      "Ġunderneath": 5637,
      "Ġrocked": 5638,
      "ĠBubbles": 5639,
      "Ġintroduc": 5640,
      "Ġexactly": 5641,
      "ĠAn": 5642,
      "Ġowned": 5643,
      "ĠSpark": 5644,
      "Ġdecorated": 5645,
      "Ġcaut": 5646,
      "ĠItÃ¢": 5647,
      "Ġloving": 5648,
      "Ġprune": 5649,
      "Ġdownstairs": 5650,
      "Ġbeha": 5651,
      "Ġtravell": 5652,
      "Ġinstruct": 5653,
      "Ġrele": 5654,
      "Ġlandsc": 5655,
      "Ġprotected": 5656,
      "Ġcuddle": 5657,
      "Ġacorns": 5658,
      "Ġbarely": 5659,
      "Ġrealize": 5660,
      "Ġvoices": 5661,
      "Ġprinter": 5662,
      "Ġtugged": 5663,
      "ÅĵDon": 5664,
      "Ġstretching": 5665,
      "Ġtwirling": 5666,
      "Ġstealing": 5667,
      "Ġemergen": 5668,
      "Ġdied": 5669,
      "Ġloose": 5670,
      "Ġsuitc": 5671,
      "Ġmission": 5672,
      "Ġbouncy": 5673,
      "Ġunlocked": 5674,
      "Ġpiles": 5675,
      "annah": 5676,
      "Ġaccompl": 5677,
      "Ġbridges": 5678,
      "zie": 5679,
      "ica": 5680,
      "Ġbye": 5681,
      "ÅĵLook": 5682,
      "Ġparked": 5683,
      "Ġsolut": 5684,
      "Ġtickets": 5685,
      "ĠUncle": 5686,
      "Ġchallenge": 5687,
      "Un": 5688,
      "Ġnicer": 5689,
      "Ġvict": 5690,
      "Ġfoods": 5691,
      "Ġyelling": 5692,
      "Ġladyb": 5693,
      "Ġplanned": 5694,
      "ĠFloppy": 5695,
      "âĤ¬âĢĿ": 5696,
      "ĠJulie": 5697,
      "Ġcompleted": 5698,
      "Ġbank": 5699,
      "ilo": 5700,
      "Ġsoak": 5701,
      "Ġexit": 5702,
      "ffic": 5703,
      "Ġtraffic": 5704,
      "Ġpupp": 5705,
      "Ġwinning": 5706,
      "Ġloaded": 5707,
      "Ġmater": 5708,
      "Ġmittens": 5709,
      "ĠBig": 5710,
      "ĠPip": 5711,
      "Ġmateri": 5712,
      "ashed": 5713,
      "Ġvent": 5714,
      "Ġbudge": 5715,
      "ÅĵCan": 5716,
      "Ġwrites": 5717,
      "Ġbreaking": 5718,
      "ĠOl": 5719,
      "Ġsights": 5720,
      "Ġbloomed": 5721,
      "Ġincrease": 5722,
      "Ġmentioned": 5723,
      "Ġlandscape": 5724,
      "edding": 5725,
      "Ġpearl": 5726,
      "thank": 5727,
      "Ġsteel": 5728,
      "Ġtastes": 5729,
      "Ġmuscles": 5730,
      "Ġdoctors": 5731,
      "ĠFrank": 5732,
      "Ġproperly": 5733,
      "Or": 5734,
      "Ġago": 5735,
      "ĠLucky": 5736,
      "bert": 5737,
      "ulu": 5738,
      "George": 5739,
      "Rex": 5740,
      "Joey": 5741,
      "Ġcontro": 5742,
      "Ġbottles": 5743,
      "Ġstirring": 5744,
      "Ġstamps": 5745,
      "Ġscurried": 5746,
      "zing": 5747,
      "ĠThese": 5748,
      "Ġbend": 5749,
      "Ġkeeps": 5750,
      "ĠAnne": 5751,
      "Ġpowers": 5752,
      "Happy": 5753,
      "Ġwonders": 5754,
      "Paul": 5755,
      "mare": 5756,
      "Ġdent": 5757,
      "Ġstair": 5758,
      "Ġpears": 5759,
      "Ġopin": 5760,
      "Ġjogged": 5761,
      "aster": 5762,
      "Ġshoulders": 5763,
      "Ġfiremen": 5764,
      "Ġprinted": 5765,
      "Ġpunished": 5766,
      "Ġoutdoors": 5767,
      "Ġinstructions": 5768,
      "ury": 5769,
      "Ġchef": 5770,
      "Ġwondering": 5771,
      "uesday": 5772,
      "ux": 5773,
      "ĠSomething": 5774,
      "Ġstole": 5775,
      "Ġwinner": 5776,
      "Bobby": 5777,
      "Mar": 5778,
      "die": 5779,
      "shing": 5780,
      "Ġpies": 5781,
      "ĠTw": 5782,
      "imy": 5783,
      "Ġcrumb": 5784,
      "Ġzigzag": 5785,
      "Ġruin": 5786,
      "iggy": 5787,
      "Ġgiggling": 5788,
      "Ġgathering": 5789,
      "Ġpouring": 5790,
      "Ġfigured": 5791,
      "bric": 5792,
      "nes": 5793,
      "oed": 5794,
      "Ġlux": 5795,
      "ishes": 5796,
      "Ġfabric": 5797,
      "Ġnightmare": 5798,
      "Ġburrow": 5799,
      "Ġincluded": 5800,
      "rr": 5801,
      "Ġtwinkling": 5802,
      "ednes": 5803,
      "ĠSanta": 5804,
      "Ġcones": 5805,
      "ĠKe": 5806,
      "Ġplanets": 5807,
      "Ġapplauded": 5808,
      "ednesday": 5809,
      "Ġwagging": 5810,
      "ĠTuesday": 5811,
      "Ġeast": 5812,
      "Ġyouth": 5813,
      "usan": 5814,
      "Ġseason": 5815,
      "Teddy": 5816,
      "zen": 5817,
      "ĠQu": 5818,
      "Ġwest": 5819,
      "Ġtonight": 5820,
      "Ġdam": 5821,
      "Ġlied": 5822,
      "Ġstrings": 5823,
      "though": 5824,
      "Ġbuckets": 5825,
      "Ġkeys": 5826,
      "Ġentire": 5827,
      "Ġsupplies": 5828,
      "Ġshivered": 5829,
      "Ġurged": 5830,
      "uly": 5831,
      "Ġwedding": 5832,
      "Ġgrant": 5833,
      "ĠCar": 5834,
      "Afterwards": 5835,
      "Ġhonk": 5836,
      "Ġsilence": 5837,
      "Ġemergency": 5838,
      "Ġinch": 5839,
      "Ġbeard": 5840,
      "Ġweb": 5841,
      "ĠBir": 5842,
      "Ġtexture": 5843,
      "ĠCarl": 5844,
      "ledge": 5845,
      "Ġforgi": 5846,
      "Ġguest": 5847,
      "uctantly": 5848,
      "Ġpurred": 5849,
      "Ġroaring": 5850,
      "ĠWednesday": 5851,
      "ĠDid": 5852,
      "Ġpebbles": 5853,
      "Ġteasing": 5854,
      "ÅĵThis": 5855,
      "Ġmarriage": 5856,
      "Ġrainbows": 5857,
      "Ġintroduce": 5858,
      "bies": 5859,
      "Ġknowledge": 5860,
      "avi": 5861,
      "lowly": 5862,
      "Ġconfident": 5863,
      "Ġintroduced": 5864,
      "Bella": 5865,
      "Pete": 5866,
      "uzz": 5867,
      "Ġsi": 5868,
      "omas": 5869,
      "Ġsoaked": 5870,
      "Ġbabies": 5871,
      "Ġtouching": 5872,
      "Ġsnowball": 5873,
      "Ġsurface": 5874,
      "Ġresponsible": 5875,
      "Ġsorting": 5876,
      "Ġeats": 5877,
      "Ġrocking": 5878,
      "Ġfrosting": 5879,
      "Ġacted": 5880,
      "Ġbrushes": 5881,
      ".'": 5882,
      "ora": 5883,
      "Ġsneaked": 5884,
      "Ġreleased": 5885,
      "Remember": 5886,
      "lee": 5887,
      "Ġclick": 5888,
      "Ġourselves": 5889,
      "Ġsteep": 5890,
      "Ġfrozen": 5891,
      "ĠChloe": 5892,
      "Ġclaps": 5893,
      "Ġcontrol": 5894,
      "hins": 5895,
      "aky": 5896,
      "ĠJosh": 5897,
      "ĠletÃ¢": 5898,
      "Ġcontest": 5899,
      "izzie": 5900,
      "exp": 5901,
      "Ġtickle": 5902,
      "Ġmovies": 5903,
      "Ġrubbing": 5904,
      "Cl": 5905,
      "Ġsides": 5906,
      "Ġeight": 5907,
      "Ġpeaches": 5908,
      "Ġpockets": 5909,
      "Ġfart": 5910,
      "Ġann": 5911,
      "Ġdragged": 5912,
      "Ġstorekeeper": 5913,
      "Ġreluctantly": 5914,
      "Ġmatching": 5915,
      "Ġsisters": 5916,
      "Ġexpected": 5917,
      "Ġpoliceman": 5918,
      "Ġhorns": 5919,
      "Ella": 5920,
      "Ġbunch": 5921,
      "Ġcape": 5922,
      "ĠSunny": 5923,
      "Ġshock": 5924,
      "inda": 5925,
      "ĠJan": 5926,
      "bbing": 5927,
      "Ġgreet": 5928,
      "Ġpaintings": 5929,
      "Ġdragons": 5930,
      "Ġscreaming": 5931,
      "Ġmixing": 5932,
      "Ġspraying": 5933,
      "Ġcompetition": 5934,
      "Ġdemanded": 5935,
      "ody": 5936,
      "va": 5937,
      "ira": 5938,
      "Ġplenty": 5939,
      "Ġbecoming": 5940,
      "Ġsorted": 5941,
      "ĠRa": 5942,
      "Ġsinger": 5943,
      "Ġproject": 5944,
      "Ġinterest": 5945,
      "ĠStop": 5946,
      "Ġshivering": 5947,
      "expected": 5948,
      "ĠHop": 5949,
      "ason": 5950,
      "Ġbravery": 5951,
      "Ġunexpected": 5952,
      "Ġdeser": 5953,
      "Ġresult": 5954,
      "Ġsituation": 5955,
      "Lola": 5956,
      "Ġruler": 5957,
      "Ġmachines": 5958,
      "Ġcrowd": 5959,
      "Ġsolution": 5960,
      "Mr": 5961,
      "ĠLike": 5962,
      "Ġowners": 5963,
      "ĠJohnson": 5964,
      "Ġdolphins": 5965,
      "Ġpoking": 5966,
      "Ġtruly": 5967,
      "Ġdraws": 5968,
      "Ġzookeeper": 5969,
      "Goodbye": 5970,
      "ĠSure": 5971,
      "Ġchat": 5972,
      "Ġwritten": 5973,
      "Ġprints": 5974,
      "Ġmatched": 5975,
      "Ġshelves": 5976,
      "Ġdiscovering": 5977,
      "Ġcountryside": 5978,
      "ÅĵDonÃ¢": 5979,
      "Ġsuitcase": 5980,
      "Ġluxury": 5981,
      "vin": 5982,
      "Ġsway": 5983,
      "reen": 5984,
      "Ġrelease": 5985,
      "usted": 5986,
      "ĠAlways": 5987,
      "Ġda": 5988,
      "ayla": 5989,
      "Ġgoals": 5990,
      "Ġgoodnight": 5991,
      "Ġexpect": 5992,
      "Ġpassing": 5993,
      "Ġchewing": 5994,
      "Ġcrackers": 5995,
      "Ġblooming": 5996,
      "Ġbalancing": 5997,
      "Ġachieve": 5998,
      "Ġcautious": 5999,
      "Ġvictory": 6000,
      "James": 6001,
      "fit": 6002,
      "iar": 6003,
      "you": 6004,
      "ern": 6005,
      "Ġpout": 6006,
      "irm": 6007,
      "Ġhugging": 6008,
      "Ġslimy": 6009,
      "Ġwaiter": 6010,
      "Ġcurtains": 6011,
      "Ye": 6012,
      "Ġfetch": 6013,
      "vers": 6014,
      "Ġblink": 6015,
      "ults": 6016,
      "Ġhighest": 6017,
      "Ġcheering": 6018,
      "ĠBuzzy": 6019,
      "Ġmuffins": 6020,
      "lowers": 6021,
      "Ġdirection": 6022,
      "Ġguys": 6023,
      "Ġtrembling": 6024,
      "Ġdentist": 6025,
      "jam": 6026,
      "rance": 6027,
      "hell": 6028,
      "ĠAdam": 6029,
      "ĠJamie": 6030,
      "Ġranger": 6031,
      "ĠLulu": 6032,
      "Ġkicking": 6033,
      "Ġmotion": 6034,
      "Ġrecorded": 6035,
      "Ġcamping": 6036,
      "Ġstruggle": 6037,
      "Ġsiren": 6038,
      "icky": 6039,
      "Ġsweets": 6040,
      "Ġcreating": 6041,
      "Ġhealed": 6042,
      "Ġdusty": 6043,
      "int": 6044,
      "iles": 6045,
      "Ġoutfit": 6046,
      "Ġhomework": 6047,
      "ÅĵHello": 6048,
      "Ġpolishing": 6049,
      "Ġpastries": 6050,
      "Ġrelief": 6051,
      "Ġdesp": 6052,
      "Ġroads": 6053,
      "ĠMatt": 6054,
      "ĠJeff": 6055,
      "Kitty": 6056,
      "appy": 6057,
      "cers": 6058,
      "udy": 6059,
      "itely": 6060,
      "ĠcanÃ¢": 6061,
      "oline": 6062,
      "Ġmarker": 6063,
      "Ġlibrarian": 6064,
      "ĠUnfortunately": 6065,
      "Ġcent": 6066,
      "Ġstaring": 6067,
      "ĠDavid": 6068,
      "Ġprayer": 6069,
      "Ġstudying": 6070,
      "Ġsausages": 6071,
      "Ġladybug": 6072,
      "Ġventured": 6073,
      "Mike": 6074,
      "Ġspike": 6075,
      "Ġexha": 6076,
      "Ġchips": 6077,
      "Ġbroom": 6078,
      "Ġpastels": 6079,
      "Grace": 6080,
      "Ġcurly": 6081,
      "Ġcompletely": 6082,
      "Ġdisagree": 6083,
      "ivery": 6084,
      "Ġti": 6085,
      "Ġstare": 6086,
      "agull": 6087,
      "Ġchases": 6088,
      "ÅĵOh": 6089,
      "Ġimportance": 6090,
      "Ġbaked": 6091,
      "...": 6092,
      "Yeah": 6093,
      "Maggie": 6094,
      "Ġtim": 6095,
      "Ġwound": 6096,
      "ĠFor": 6097,
      "ĠRob": 6098,
      "Ġdrives": 6099,
      "Millie": 6100,
      "Ġ1": 6101,
      "Ġworries": 6102,
      "asm": 6103,
      "essie": 6104,
      "ĠCindy": 6105,
      "Ġsweeties": 6106,
      "Ġarrive": 6107,
      "Ġdesert": 6108,
      "Ġscru": 6109,
      "However": 6110,
      "Ġpenguins": 6111,
      "Ġkneeled": 6112,
      "Ġfirm": 6113,
      "immer": 6114,
      "ĠBy": 6115,
      "Ġseagull": 6116,
      "ĠJones": 6117,
      "Ġscra": 6118,
      "Ġscales": 6119,
      "Ġprun": 6120,
      "Ġpartic": 6121,
      "Ġthreat": 6122,
      "ĠTilly": 6123,
      "Ġthro": 6124,
      "Ġshined": 6125,
      "Ġsnugg": 6126,
      "Ġnetwork": 6127,
      "Ġrescued": 6128,
      "Ġrepeated": 6129,
      "Ġgazed": 6130,
      "Ġactivities": 6131,
      "Ġexhausted": 6132,
      "Ah": 6133,
      "Alex": 6134,
      "Fr": 6135,
      "Ġfreed": 6136,
      "iding": 6137,
      "esome": 6138,
      "opes": 6139,
      "Ġcaused": 6140,
      "Ġentrance": 6141,
      "Ġarguing": 6142,
      "Ġthroat": 6143,
      "Ġcash": 6144,
      "Ġheel": 6145,
      "irts": 6146,
      "Ġtheirs": 6147,
      "Ġslap": 6148,
      "Ġfoc": 6149,
      "Ġunited": 6150,
      "Ġpatted": 6151,
      "Ġtrips": 6152,
      "Ġsnakes": 6153,
      "Ġwandering": 6154,
      "Ġleader": 6155,
      "Ġinclude": 6156,
      "Mittens": 6157,
      "Ġast": 6158,
      "ĠSadly": 6159,
      "ĠSusan": 6160,
      "igi": 6161,
      "Ġtowels": 6162,
      "Ġsticking": 6163,
      "ĠwasnÃ¢": 6164,
      "Ġpeeking": 6165,
      "Ġribbons": 6166,
      "Ġregretted": 6167,
      "Ġfarther": 6168,
      "jamas": 6169,
      "go": 6170,
      "Ġwink": 6171,
      "Ġfara": 6172,
      "Ġlamb": 6173,
      "Ġheav": 6174,
      "Ġboom": 6175,
      "ĠLou": 6176,
      "Ġcomm": 6177,
      "Ġdelivery": 6178,
      "Ġseesaw": 6179,
      "Ġpatience": 6180,
      "Ġobserved": 6181,
      "Ġquacked": 6182,
      "Ġparticular": 6183,
      "Ġfaraway": 6184,
      "ik": 6185,
      "hello": 6186,
      "Ġbead": 6187,
      "alph": 6188,
      "Ġrolls": 6189,
      "Ġreaching": 6190,
      "Grandpa": 6191,
      "Ġseems": 6192,
      "Mrs": 6193,
      "Ġstartled": 6194,
      "Ġlearns": 6195,
      "Ġcatches": 6196,
      "Ġusual": 6197,
      "Ġsingle": 6198,
      "Ġpolished": 6199,
      "Ġawesome": 6200,
      "ĠĊĠ": 6201,
      "ĠJon": 6202,
      "Ġfault": 6203,
      "Ġhowever": 6204,
      "ÅĵWhy": 6205,
      "ĠGr": 6206,
      "Sophie": 6207,
      "ne": 6208,
      "ĠyouÃ¢": 6209,
      "acob": 6210,
      "Ġsafer": 6211,
      "Ġorganizing": 6212,
      "Ġcrabs": 6213,
      "ĠZoom": 6214,
      "Ġreveal": 6215,
      "Ġsquealed": 6216,
      "Ġfirefighters": 6217,
      "Ġcrumbs": 6218,
      "Bun": 6219,
      "Harry": 6220,
      "Ġdared": 6221,
      "Ġflat": 6222,
      "Ġremoved": 6223,
      "Ġmarks": 6224,
      "ĠOut": 6225,
      "Ġtraveled": 6226,
      "ĠChrist": 6227,
      "dies": 6228,
      "Ġliqu": 6229,
      "Ġleap": 6230,
      "ĠMomo": 6231,
      "ÅĵMommy": 6232,
      "Ġrestored": 6233,
      "Ġdarkness": 6234,
      "Ġinviting": 6235,
      "Ġvanish": 6236,
      "Ġsandcastles": 6237,
      "ĠSuzie": 6238,
      "Ġherbs": 6239,
      "Ġdirect": 6240,
      "Ġopinion": 6241,
      "Ġliquid": 6242,
      "Ġboo": 6243,
      "ĠSlowly": 6244,
      "Ġstolen": 6245,
      "Ġstrike": 6246,
      "cuse": 6247,
      "Henry": 6248,
      "mas": 6249,
      "njoy": 6250,
      "ĠBye": 6251,
      "umm": 6252,
      "aced": 6253,
      "Ġpajamas": 6254,
      "Ġcuts": 6255,
      "Ġvalued": 6256,
      "Ġcoloured": 6257,
      "Ġtickled": 6258,
      "Ġwiggled": 6259,
      "ĠClaire": 6260,
      "Fred": 6261,
      "pe": 6262,
      "ords": 6263,
      "ĠMart": 6264,
      "Ġroots": 6265,
      "ĠLizzy": 6266,
      "Ġstroll": 6267,
      "Ġgaze": 6268,
      "Leo": 6269,
      "Ġpaddled": 6270,
      "ences": 6271,
      "ĠLuke": 6272,
      "Ġchuck": 6273,
      "Ġresting": 6274,
      "Ġgrowl": 6275,
      "Ġadding": 6276,
      "Annie": 6277,
      "ĠFollow": 6278,
      "Excuse": 6279,
      "Ġinterested": 6280,
      "ĠChristmas": 6281,
      "ĠYes": 6282,
      "Ġcause": 6283,
      "ently": 6284,
      "Ġfaced": 6285,
      "ĠEarth": 6286,
      "Ġswooped": 6287,
      "Ġeverybody": 6288,
      "Ġworker": 6289,
      "Ġusually": 6290,
      "Ġgrowling": 6291,
      "Ġpencils": 6292,
      "Ġsighs": 6293,
      "Ġprunes": 6294,
      "Ġbumpy": 6295,
      "Ġlined": 6296,
      "Ġnect": 6297,
      "Ġsomebody": 6298,
      "Ġlap": 6299,
      "Ġforehead": 6300,
      "coat": 6301,
      "Ġtallest": 6302,
      "Ġbuying": 6303,
      "Ġknights": 6304,
      "Ġitchy": 6305,
      "Ġnectar": 6306,
      "elia": 6307,
      "Ġopening": 6308,
      "boat": 6309,
      "angled": 6310,
      "Ġpots": 6311,
      "Ġfuzzy": 6312,
      "Ġgroceries": 6313,
      "Rose": 6314,
      "Ġstem": 6315,
      "Ġcans": 6316,
      "ĠJenna": 6317,
      "Ġweeping": 6318,
      "Ġbeads": 6319,
      "lings": 6320,
      "rious": 6321,
      "Ġflames": 6322,
      "Ġprincesses": 6323,
      "Ġmisses": 6324,
      "ĠBeing": 6325,
      "Ġflags": 6326,
      "Ġcracked": 6327,
      "Ġwires": 6328,
      "Ġsneaky": 6329,
      "Ġfamilies": 6330,
      "rops": 6331,
      "ĠMany": 6332,
      "aren": 6333,
      "ĠLarry": 6334,
      "Ġraind": 6335,
      "Ġraincoat": 6336,
      "Ġcovers": 6337,
      "Ġawake": 6338,
      "oh": 6339,
      "Ġty": 6340,
      "Ġcott": 6341,
      "Ġden": 6342,
      "Ġrisk": 6343,
      "Ġrumble": 6344,
      "ĠEls": 6345,
      "Ġpretends": 6346,
      "Ġyesterday": 6347,
      "Ġcelebration": 6348,
      "Ġimproved": 6349,
      "Uh": 6350,
      "Ġpause": 6351,
      "armer": 6352,
      "ana": 6353,
      "Ġripe": 6354,
      "ĠBoth": 6355,
      "Ġmane": 6356,
      "ĠLinda": 6357,
      "ĠThomas": 6358,
      "Ġteaches": 6359,
      "abel": 6360,
      "Ġbaker": 6361,
      "Unfortunately": 6362,
      "Sandy": 6363,
      "Ġdipped": 6364,
      "Ġopp": 6365,
      "Ġglee": 6366,
      "Ġstern": 6367,
      "ĠMilo": 6368,
      "oys": 6369,
      "Ġwrist": 6370,
      "Ġpacking": 6371,
      "hog": 6372,
      "Ġmiles": 6373,
      "Ġleading": 6374,
      "Ġmelting": 6375,
      "Ġmagnets": 6376,
      "ÅĵWhatÃ¢": 6377,
      "Ġtasks": 6378,
      "Ġprovided": 6379,
      "Ġtwinkle": 6380,
      "Ġbalanced": 6381,
      "Ġcashier": 6382,
      "Ġhi": 6383,
      "reat": 6384,
      "Ġbelly": 6385,
      "opsy": 6386,
      "bbly": 6387,
      "Ġsnuck": 6388,
      "brush": 6389,
      "Ġphotos": 6390,
      "Ġunpacked": 6391,
      "Ġaff": 6392,
      "Ġwasted": 6393,
      "ppers": 6394,
      "ĠLuckily": 6395,
      "Ġsnat": 6396,
      "Ġunf": 6397,
      "Ġreplaced": 6398,
      "Ġworkers": 6399,
      "Ġdef": 6400,
      "Ġreads": 6401,
      "ĠEmmy": 6402,
      "Ġnaps": 6403,
      "Ġrockets": 6404,
      "Ġraindrops": 6405,
      "Ġlung": 6406,
      "ena": 6407,
      "ĠBird": 6408,
      "ĠLizzie": 6409,
      "Ġstaying": 6410,
      "Ġsmiley": 6411,
      "Ġuses": 6412,
      "Ġwinked": 6413,
      "Ġprotecting": 6414,
      "Ġreply": 6415,
      "ĠJessie": 6416,
      "ĠRabbit": 6417,
      "ĠY": 6418,
      "hee": 6419,
      "Ġwow": 6420,
      "Ġpiggy": 6421,
      "arling": 6422,
      "Ġmarked": 6423,
      "Ġactions": 6424,
      "Ġdetermination": 6425,
      "Ġbeginning": 6426,
      "Ġaccomplish": 6427,
      "Ġcautiously": 6428,
      "Ġbars": 6429,
      "Ġswirl": 6430,
      "Ġcolored": 6431,
      "Ġbedtime": 6432,
      "Ġradishes": 6433,
      "Charlie": 6434,
      "Ġagrees": 6435,
      "ĠBetty": 6436,
      "Ġrecommended": 6437,
      "eke": 6438,
      "Ġlower": 6439,
      "Ġhissed": 6440,
      "ĠPipp": 6441,
      "Ġfilling": 6442,
      "Ġsecure": 6443,
      "Ġtalented": 6444,
      "boo": 6445,
      "ĠHannah": 6446,
      "ĠMad": 6447,
      "ĠAunt": 6448,
      "Ġtwin": 6449,
      "ĠPut": 6450,
      "Ġexplorers": 6451,
      "Ġspeaking": 6452,
      "Ġpaddle": 6453,
      "Ġtemper": 6454,
      "ĠJessica": 6455,
      "wk": 6456,
      "Ġtodd": 6457,
      "Ġcough": 6458,
      "Ġseven": 6459,
      "Ġtreehouse": 6460,
      "Ġtricked": 6461,
      "Ġsplashes": 6462,
      "Ġglasses": 6463,
      "Ġrecording": 6464,
      "Ġdirections": 6465,
      "ossible": 6466,
      "vest": 6467,
      "ĠMon": 6468,
      "Ġchoo": 6469,
      "Ġimpossible": 6470,
      "Ġparties": 6471,
      "Ġdarker": 6472,
      "Ġattack": 6473,
      "Ġcelebrating": 6474,
      "ĠLeave": 6475,
      "Ġgiraff": 6476,
      "Ġhedgehog": 6477,
      "Ġseashell": 6478,
      "Ġcalmed": 6479,
      "Ġdrifted": 6480,
      "Ġtimer": 6481,
      "Ġchuckled": 6482,
      "Kate": 6483,
      "Ëľ": 6484,
      "ĠTess": 6485,
      "ido": 6486,
      "Ġhawk": 6487,
      "ĠSqu": 6488,
      "ormed": 6489,
      "?\",": 6490,
      "ĠWater": 6491,
      "âĤ¬Ëľ": 6492,
      "Ġdancers": 6493,
      "ĠPrin": 6494,
      "ĠGigi": 6495,
      "Ġsailboat": 6496,
      "Ġgems": 6497,
      "Ġflavor": 6498,
      "Ġgiraffes": 6499,
      "Days": 6500,
      "ĠJay": 6501,
      "Ġfever": 6502,
      "Ġdiving": 6503,
      "Ġhallway": 6504,
      "ĠSparky": 6505,
      "cited": 6506,
      "Ġlogs": 6507,
      "Ġbacked": 6508,
      "Ġdeal": 6509,
      "Ġsteer": 6510,
      "Ġpleasure": 6511,
      "ophia": 6512,
      "Ġscrubbed": 6513,
      "Polly": 6514,
      "yond": 6515,
      "isies": 6516,
      "ids": 6517,
      "Ġinsp": 6518,
      "Ġbeyond": 6519,
      "rip": 6520,
      "Ġyounger": 6521,
      "ĠBo": 6522,
      "urry": 6523,
      "Ġrobb": 6524,
      "Ġconn": 6525,
      "Ġfairies": 6526,
      "ĠwouldnÃ¢": 6527,
      "ĠOw": 6528,
      "Ġfolding": 6529,
      "Ġpaying": 6530,
      "Ġtricky": 6531,
      "Ġartist": 6532,
      "Ġbakery": 6533,
      "Ġmaterials": 6534,
      "Ġpouted": 6535,
      "no": 6536,
      "Ġsense": 6537,
      "ĠHappy": 6538,
      "ĠMel": 6539,
      "ĠAbbie": 6540,
      "Ġchip": 6541,
      "Ġslices": 6542,
      "ths": 6543,
      "ĠRobby": 6544,
      "Ġrivers": 6545,
      "Ġbowls": 6546,
      "Ġhoriz": 6547,
      "Ġbumps": 6548,
      "Ġlollipops": 6549,
      "Ġobjects": 6550,
      "Ġcheeks": 6551,
      "Ġdaisies": 6552,
      "Ġtipt": 6553,
      "Ġtemperature": 6554,
      "bell": 6555,
      "Ġlun": 6556,
      "aty": 6557,
      "Ġknees": 6558,
      "Ġsquish": 6559,
      "Ġrubs": 6560,
      "Ġsquares": 6561,
      "Ġsnatched": 6562,
      "Ġhorizon": 6563,
      "ners": 6564,
      "arter": 6565,
      "ĠMo": 6566,
      "Ġsmarter": 6567,
      "Ġyourselves": 6568,
      "Ġcoloring": 6569,
      "Ġlistens": 6570,
      "itches": 6571,
      "Ġfroze": 6572,
      "Ġcreamy": 6573,
      "ĠJulia": 6574,
      "Ġfluttered": 6575,
      "Ġachieved": 6576,
      "ĠMaya": 6577,
      "Ġrusty": 6578,
      "Bl": 6579,
      "Fine": 6580,
      "Some": 6581,
      "ippy": 6582,
      "oey": 6583,
      "the": 6584,
      "tle": 6585,
      "Ġscaring": 6586,
      "Ġtractor": 6587,
      "Ġbehavi": 6588,
      "Ġdreamt": 6589,
      "Ġmuscle": 6590,
      "cope": 6591,
      "uzzy": 6592,
      "Ġsib": 6593,
      "Ġdarling": 6594,
      "Ġmi": 6595,
      "Ġsobbed": 6596,
      "Ġchop": 6597,
      "ĠFriend": 6598,
      "Ġcupcakes": 6599,
      "Ġembarrass": 6600,
      "Ġrefle": 6601,
      "Ġpedals": 6602,
      "Ġdiscussed": 6603,
      "Ġinstrum": 6604,
      "zes": 6605,
      "Ġhearing": 6606,
      "Ġlosing": 6607,
      "ĠEnjoy": 6608,
      "Ġgrassy": 6609,
      "Ġhealth": 6610,
      "Ġscarves": 6611,
      "Ġblows": 6612,
      "Ġcandies": 6613,
      "Ġarrows": 6614,
      "Ġdelivered": 6615,
      "Ġmasks": 6616,
      "ĠKeep": 6617,
      "ĠPrincess": 6618,
      "For": 6619,
      "Katie": 6620,
      "oni": 6621,
      "Ġweeke": 6622,
      "Ġaren": 6623,
      "Ġjoking": 6624,
      "ĠChe": 6625,
      "Ġfluttering": 6626,
      "Ġmixture": 6627,
      "Ġweekend": 6628,
      "fl": 6629,
      "urious": 6630,
      "Ġhitting": 6631,
      "Ġwadd": 6632,
      "Ġmes": 6633,
      "ility": 6634,
      "ĠSorry": 6635,
      "Ġrip": 6636,
      "ĠAbby": 6637,
      "ĠDolly": 6638,
      "Ġstays": 6639,
      "ĠPo": 6640,
      "Ġcloses": 6641,
      "Ġafterwards": 6642,
      "ĠAsh": 6643,
      "ĠTodd": 6644,
      "Ġindeed": 6645,
      "Ġrewarded": 6646,
      "Ġseparated": 6647,
      "Ġwidened": 6648,
      "Ġtravelled": 6649,
      "Ġmesmer": 6650,
      "Fin": 6651,
      "Ġdots": 6652,
      "Ġthird": 6653,
      "Ġnoon": 6654,
      "icked": 6655,
      "Ġmeals": 6656,
      "Ġhandful": 6657,
      "ĠPl": 6658,
      "ĠGet": 6659,
      "Ġsigned": 6660,
      "Ġwipes": 6661,
      "Ġhesitated": 6662,
      "ĠNothing": 6663,
      "Ġbehaved": 6664,
      "itched": 6665,
      "Ġcous": 6666,
      "iled": 6667,
      "Ġgobbled": 6668,
      "Ġroses": 6669,
      "ĠFarmer": 6670,
      "ÅĵDo": 6671,
      "ĠNick": 6672,
      "Ġpotion": 6673,
      "Ġneighbours": 6674,
      "Ġcowb": 6675,
      "Ġsalty": 6676,
      "Ġscrews": 6677,
      "Ġminerals": 6678,
      "May": 6679,
      "band": 6680,
      "rig": 6681,
      "ĠĠĊ": 6682,
      "eds": 6683,
      "ĠHoot": 6684,
      "igers": 6685,
      "ntil": 6686,
      "Ġwears": 6687,
      "Ġrefu": 6688,
      "Ġflapping": 6689,
      "using": 6690,
      "ĠEverybody": 6691,
      "aker": 6692,
      "Ġyells": 6693,
      "ments": 6694,
      "Ġkicks": 6695,
      "Ġshrinking": 6696,
      "Toby": 6697,
      "Ġvideos": 6698,
      "Ġforgiven": 6699,
      "Danny": 6700,
      "Time": 6701,
      "Ġaud": 6702,
      "ĠTara": 6703,
      "Ġonions": 6704,
      "Ġshirts": 6705,
      "ĠJazz": 6706,
      "Ġexperien": 6707,
      "Ġburst": 6708,
      "Ġornaments": 6709,
      "An": 6710,
      "Ġrising": 6711,
      "Ġbeam": 6712,
      "itted": 6713,
      "sequ": 6714,
      "ickey": 6715,
      "iece": 6716,
      "Ġslam": 6717,
      "Ġdrawn": 6718,
      "Ġamong": 6719,
      "Ġlighter": 6720,
      "Ġrequested": 6721,
      "ĠAmelia": 6722,
      "?'": 6723,
      "Ellie": 6724,
      "Milly": 6725,
      "Ġtangled": 6726,
      "Ġcoup": 6727,
      "ades": 6728,
      "Ġfact": 6729,
      "ept": 6730,
      "Ġbadge": 6731,
      "Ġconsequ": 6732,
      "Ġbeloved": 6733,
      "ĠKayla": 6734,
      "Ġknocks": 6735,
      "ded": 6736,
      "Ġcust": 6737,
      "Ġech": 6738,
      "ĠEl": 6739,
      "Ġswept": 6740,
      "Ġneedles": 6741,
      "ÅĵWow": 6742,
      "ĠPam": 6743,
      "umbling": 6744,
      "Bobo": 6745,
      "Ġclowns": 6746,
      "Ġgracefully": 6747,
      "Ġsnowballs": 6748,
      "eal": 6749,
      "jo": 6750,
      "ouch": 6751,
      "Ġkites": 6752,
      "ĠJacob": 6753,
      "Ġnoses": 6754,
      "Ġgrandp": 6755,
      "Ġwilling": 6756,
      "ĠJacky": 6757,
      "Ġblocking": 6758,
      "Ġprinting": 6759,
      "ĠDoggy": 6760,
      "Ġpointy": 6761,
      "Ġpassen": 6762,
      "Ġtunnels": 6763,
      "Ġcopy": 6764,
      "Ġcomplaining": 6765,
      "Ġcouple": 6766,
      "Ġcustom": 6767,
      "Ducky": 6768,
      "Run": 6769,
      "Ġdet": 6770,
      "atul": 6771,
      "igning": 6772,
      "ĠWatch": 6773,
      "ĠLi": 6774,
      "ĠPinky": 6775,
      "Ġperformance": 6776,
      "ronaut": 6777,
      "Ġstomped": 6778,
      "Ġincluding": 6779,
      "Ġastronaut": 6780,
      "iki": 6781,
      "Ġsiblings": 6782,
      "Ġconsequences": 6783,
      "Ġteased": 6784,
      "Ġpans": 6785,
      "Ġjackets": 6786,
      "Ġannoy": 6787,
      "Ġcenter": 6788,
      "Ġafford": 6789,
      "Ġgrandpare": 6790,
      "Ġcor": 6791,
      "ans": 6792,
      "llen": 6793,
      "Ġarr": 6794,
      "Ġhandsome": 6795,
      "Ġchoices": 6796,
      "Ġforgetting": 6797,
      "Ġdrums": 6798,
      "Ġtiptoed": 6799,
      "Ġaudience": 6800,
      "Dan": 6801,
      "Wh": 6802,
      "aa": 6803,
      "ky": 6804,
      "atur": 6805,
      "obody": 6806,
      "ĠPandy": 6807,
      "ĠwonÃ¢": 6808,
      "Ġplans": 6809,
      "ĠFlopsy": 6810,
      "Ġsource": 6811,
      "Ġscratches": 6812,
      "Ġsurroundings": 6813,
      "Ġstroked": 6814,
      "rigued": 6815,
      "Ew": 6816,
      "Tina": 6817,
      "aired": 6818,
      "tuce": 6819,
      "Ġhus": 6820,
      "Ġhour": 6821,
      "Ġmast": 6822,
      "ados": 6823,
      "Ġcond": 6824,
      "ĠFido": 6825,
      "Ġpeppers": 6826,
      "Those": 6827,
      "Ġlettuce": 6828,
      "Ġcreations": 6829,
      "Ġrule": 6830,
      "Ġpeacefully": 6831,
      "Ġspoonful": 6832,
      "Ġwrapping": 6833,
      "Ġrepaired": 6834,
      "Ġwraps": 6835,
      "Ġavocados": 6836,
      "Ġpoems": 6837,
      "Ġgranted": 6838,
      "immering": 6839,
      "come": 6840,
      "mallow": 6841,
      "Ġtigers": 6842,
      "Ġlimes": 6843,
      "Ġropes": 6844,
      "Ġplayers": 6845,
      "Ġhelpers": 6846,
      "retty": 6847,
      "iley": 6848,
      "Ġbully": 6849,
      "Ġadult": 6850,
      "Ġwindy": 6851,
      "Ġzipping": 6852,
      "Ġbows": 6853,
      "Ġsnowmen": 6854,
      "Ġstarfish": 6855,
      "ĠOwl": 6856,
      "ivity": 6857,
      "Ġforks": 6858,
      "Ġavoid": 6859,
      "Ġhelmets": 6860,
      "arshmallow": 6861,
      "Ġtempt": 6862,
      "ĠRover": 6863,
      "Ġsports": 6864,
      "Ġwarnings": 6865,
      "Ġswimsuit": 6866,
      "Ġlungs": 6867,
      "Ġreass": 6868,
      "ĠMa": 6869,
      "Ġtramp": 6870,
      "ÅĵCome": 6871,
      "Ġremote": 6872,
      "Ġconcer": 6873,
      "Ġuns": 6874,
      "Ġheading": 6875,
      "Ġplanning": 6876,
      "Ġwishing": 6877,
      "Ġleaning": 6878,
      "Ġseconds": 6879,
      "Ġsprinkled": 6880,
      "Shh": 6881,
      "Ġtoddler": 6882,
      "By": 6883,
      "Ġrings": 6884,
      "ĠBessie": 6885,
      "ĠJune": 6886,
      "Ġfears": 6887,
      "Ġhider": 6888,
      "Ġsilent": 6889,
      "Ġcomplained": 6890,
      "ĠFox": 6891,
      "Ġhesitant": 6892,
      "ĠGoodbye": 6893,
      "ccoon": 6894,
      "Ġgreeted": 6895,
      "Ġdeserve": 6896,
      "Ġheavier": 6897,
      "Bad": 6898,
      "arrow": 6899,
      "river": 6900,
      "step": 6901,
      "Ġflas": 6902,
      "Ġgrabbing": 6903,
      "Ġtwice": 6904,
      "Ġraccoon": 6905,
      "Ġwarri": 6906,
      "ĠRemember": 6907,
      "Ġcreativity": 6908,
      "ĠWithout": 6909,
      "Ġspreading": 6910,
      "Ġborrowed": 6911,
      "Ġpumpkins": 6912,
      "Ġdesigned": 6913,
      "ĠOlive": 6914,
      "Maria": 6915,
      "ĠQuack": 6916,
      "Ġhusband": 6917,
      "Ġtrampoline": 6918,
      "Pat": 6919,
      "cl": 6920,
      "fall": 6921,
      "Ġmerry": 6922,
      "ĠSun": 6923,
      "esp": 6924,
      "Ġrus": 6925,
      "Ġskunk": 6926,
      "ÅĵHi": 6927,
      "ĠZoey": 6928,
      "Ġcuddly": 6929,
      "Ġinsects": 6930,
      "Ġfirefighter": 6931,
      "ĠTwo": 6932,
      "Great": 6933,
      "yes": 6934,
      "ĠQ": 6935,
      "Ġwins": 6936,
      "Ġbodies": 6937,
      "Ġspong": 6938,
      "Ġnapkins": 6939,
      "Ġimagining": 6940,
      "ĠZip": 6941,
      "Ġseeker": 6942,
      "ĠBluey": 6943,
      "Ġresisted": 6944,
      "ĠMouse": 6945,
      "Ġbackwards": 6946,
      "ongr": 6947,
      "Ġdollhouse": 6948,
      "Ġruining": 6949,
      "Ġslower": 6950,
      "anging": 6951,
      "Ġrecipe": 6952,
      "Ġgenie": 6953,
      "Ġdecorating": 6954,
      "Ġneatly": 6955,
      "ĠRobert": 6956,
      "Ġpuppies": 6957,
      "Ġdamage": 6958,
      "ĠSquirrel": 6959,
      "Nina": 6960,
      "weed": 6961,
      "Ġmer": 6962,
      "inger": 6963,
      "Ġnood": 6964,
      "ĠBinky": 6965,
      "ĠJudy": 6966,
      "Ġfeast": 6967,
      "Ġpeck": 6968,
      "Ġcrew": 6969,
      "ĠGreen": 6970,
      "ĠNina": 6971,
      "Ġsailors": 6972,
      "Ġtails": 6973,
      "Ġacting": 6974,
      "Ġaccomplishment": 6975,
      "Ġsquishy": 6976,
      "ongratul": 6977,
      "Nemo": 6978,
      "tier": 6979,
      "Ġgross": 6980,
      "anes": 6981,
      "ĠListen": 6982,
      "Ġprettier": 6983,
      "Ġsnowfl": 6984,
      "ĠZero": 6985,
      "Ġpraying": 6986,
      "Ġdelivering": 6987,
      "ÅĵYouÃ¢": 6988,
      "ĠFrog": 6989,
      "Ġfamiliar": 6990,
      "Clara": 6991,
      "Whee": 6992,
      "ael": 6993,
      "Ġtouc": 6994,
      "Ġsale": 6995,
      "Ġplucked": 6996,
      "Ġscamp": 6997,
      "ongo": 6998,
      "Ġworn": 6999,
      "plash": 7000,
      "ueen": 7001,
      "Ġwobbled": 7002,
      "Ġpromises": 7003,
      "ichael": 7004,
      "Ġexpress": 7005,
      "Ġbasement": 7006,
      "Ġwiggle": 7007,
      "Roar": 7008,
      "Ġsnuggle": 7009,
      "Ġsponge": 7010,
      "eese": 7011,
      "itude": 7012,
      "ĠTuna": 7013,
      "Ġsofter": 7014,
      "Ġspices": 7015,
      "ĠAng": 7016,
      "Ġcoc": 7017,
      "Ġpecked": 7018,
      "Ġthroughout": 7019,
      "Ġdropping": 7020,
      "Ġjoyful": 7021,
      "Meow": 7022,
      "Ġbreathed": 7023,
      "Tweety": 7024,
      "Ġguests": 7025,
      "Have": 7026,
      "iel": 7027,
      "Ġsan": 7028,
      "Ġwept": 7029,
      "choo": 7030,
      "child": 7031,
      "Ġneither": 7032,
      "ĠMira": 7033,
      "Ġalien": 7034,
      "Ġage": 7035,
      "ÅĵMy": 7036,
      "Ġconvers": 7037,
      "Ġseaweed": 7038,
      "Ġvanilla": 7039,
      "ĠUntil": 7040,
      "Ġgrandchild": 7041,
      "Ġenthusi": 7042,
      "Ġbuzzed": 7043,
      "ĠRobbie": 7044,
      "Ġconfl": 7045,
      "Ġincreased": 7046,
      "ably": 7047,
      "ĠQueen": 7048,
      "Baby": 7049,
      "lves": 7050,
      "erate": 7051,
      "Ġocc": 7052,
      "Ġrout": 7053,
      "ĠMickey": 7054,
      "Ġblast": 7055,
      "arac": 7056,
      "Ġdollars": 7057,
      "Ġthrown": 7058,
      "uggles": 7059,
      "ĠThanks": 7060,
      "Ġgasp": 7061,
      "Ġpostman": 7062,
      "Ġsurrendered": 7063,
      "Ġyielded": 7064,
      "Ġenthusiasm": 7065,
      "Br": 7066,
      "Tw": 7067,
      "iment": 7068,
      "Ġstain": 7069,
      "Ġstung": 7070,
      "Ġchos": 7071,
      "Ġexplo": 7072,
      "Ġhops": 7073,
      "Ġgrowls": 7074,
      "Ġignoring": 7075,
      "ĠSnuggles": 7076,
      "Ġmushrooms": 7077,
      "Ġcubes": 7078,
      "Ġrustling": 7079,
      "Ġfocused": 7080,
      "Ġchosen": 7081,
      "Boo": 7082,
      "Ġmarshmallow": 7083,
      "Ġgeese": 7084,
      "ĠSophia": 7085,
      "Ġthorn": 7086,
      "Ġstool": 7087,
      "Ġneare": 7088,
      "Ġleast": 7089,
      "Ġflight": 7090,
      "ĠEx": 7091,
      "Ġintrigued": 7092,
      "aura": 7093,
      "Ġexplorer": 7094,
      "Ġache": 7095,
      "athan": 7096,
      "Ġamount": 7097,
      "Ġshops": 7098,
      "Ġhopeful": 7099,
      "Ġmatters": 7100,
      "Ġhonked": 7101,
      "Ġpaths": 7102,
      "ertain": 7103,
      "Ġtoaster": 7104,
      "years": 7105,
      "Ġscraped": 7106,
      "Ġpassengers": 7107,
      "Fo": 7108,
      "Pe": 7109,
      "Surpr": 7110,
      "abby": 7111,
      "yan": 7112,
      "Ġplain": 7113,
      "allowed": 7114,
      "Ġswallowed": 7115,
      "Ġsmallest": 7116,
      "ĠRalph": 7117,
      "Ġcuriously": 7118,
      "Ġsails": 7119,
      "Ġrespond": 7120,
      "Ġlifting": 7121,
      "Ġbatteries": 7122,
      "Ġappreciation": 7123,
      "Ġwaddled": 7124,
      "Ruby": 7125,
      "while": 7126,
      "Ġais": 7127,
      "Ġdie": 7128,
      "ĠSque": 7129,
      "Ġspins": 7130,
      "Ġcharac": 7131,
      "Ġpuff": 7132,
      "ĠThose": 7133,
      "Ġdrawers": 7134,
      "Ġtalks": 7135,
      "Ġshaped": 7136,
      "Ġhealing": 7137,
      "Ġrespected": 7138,
      "Ġtested": 7139,
      "Ġsunflowers": 7140,
      "Ġencourag": 7141,
      "Ġtriangles": 7142,
      "Ġtrembled": 7143,
      "Ġwider": 7144,
      "Ġchefs": 7145,
      "ĠFriends": 7146,
      "Ġcousin": 7147,
      "Ġscampered": 7148,
      "Ġsank": 7149,
      "Ġcharacter": 7150,
      "Kim": 7151,
      "Yummy": 7152,
      "rey": 7153,
      "ition": 7154,
      "Ġnibb": 7155,
      "Ġkittens": 7156,
      "Ġglued": 7157,
      "Ġremembering": 7158,
      "Ġhides": 7159,
      "Ġstreets": 7160,
      "ĠOur": 7161,
      "ĠStella": 7162,
      "Ġcushions": 7163,
      "Ġsymbols": 7164,
      "Ġbehaving": 7165,
      "Blue": 7166,
      "Ġrushing": 7167,
      "cake": 7168,
      "unched": 7169,
      "ĠJax": 7170,
      "Ġscient": 7171,
      "Ġdads": 7172,
      "Ġtrot": 7173,
      "Ġgardener": 7174,
      "ÅĵNow": 7175,
      "Ġdances": 7176,
      "Ġwrink": 7177,
      "ĠRock": 7178,
      "Ġcausing": 7179,
      "ĠStan": 7180,
      "Ġfeeding": 7181,
      "Ġstudents": 7182,
      "Ġscrewd": 7183,
      "Ġproper": 7184,
      "Ġunsure": 7185,
      "Ġtouches": 7186,
      "Ġscientist": 7187,
      "Jul": 7188,
      "Lilly": 7189,
      "Tr": 7190,
      "ĊĊ": 7191,
      "Ġdod": 7192,
      "Ġscored": 7193,
      "Ġflown": 7194,
      "Ġdresser": 7195,
      "Ġcrashing": 7196,
      "Ġedges": 7197,
      "Quick": 7198,
      "ĠBirthday": 7199,
      "Ġfreedom": 7200,
      "--": 7201,
      "Back": 7202,
      "Even": 7203,
      "fire": 7204,
      "Ġdaring": 7205,
      "Ġnine": 7206,
      "Ġnotes": 7207,
      "Ġreason": 7208,
      "Ġmanag": 7209,
      "Ġposs": 7210,
      "emma": 7211,
      "ĠJoan": 7212,
      "Ġprove": 7213,
      "Ġcorners": 7214,
      "Ġwiping": 7215,
      "Ġtwisty": 7216,
      "Ġthud": 7217,
      "Ġrefreshing": 7218,
      "Ġfirmly": 7219,
      "Ġdefin": 7220,
      "Ġnoodles": 7221,
      "Ġscrewdriver": 7222,
      "During": 7223,
      "Sadly": 7224,
      "Ġtuck": 7225,
      "Ġsy": 7226,
      "Ġmunch": 7227,
      "Ġoh": 7228,
      "stick": 7229,
      "endy": 7230,
      "aula": 7231,
      "Ġadults": 7232,
      "Ġfinal": 7233,
      "Ġfinishing": 7234,
      "acles": 7235,
      "Ġnearly": 7236,
      "Ġstrongest": 7237,
      "ĠNobody": 7238,
      "Ġdived": 7239,
      "Ġcrossing": 7240,
      "Ġheroes": 7241,
      "Ġswans": 7242,
      "Ġperforming": 7243,
      "Ġsurfing": 7244,
      "Ġzebras": 7245,
      "Ġsuperheroes": 7246,
      "Ġmarshmallows": 7247,
      "Jerry": 7248,
      "Ġcoral": 7249,
      "Ġmoo": 7250,
      "Ġsadd": 7251,
      "Ġonward": 7252,
      "ĠBongo": 7253,
      "Ġspikes": 7254,
      "Ġswords": 7255,
      "Ġposter": 7256,
      "ĠCra": 7257,
      "Ġwobbly": 7258,
      "Ġdefe": 7259,
      "Ġchopped": 7260,
      "Ġjoining": 7261,
      "Ġforgets": 7262,
      "Ġexamining": 7263,
      "Ġsuggestion": 7264,
      "Ġsneezing": 7265,
      "Ġsurfboard": 7266,
      "Ġsuffered": 7267,
      "Su": 7268,
      "Woof": 7269,
      "eel": 7270,
      "fia": 7271,
      "Ġaimed": 7272,
      "Ġfaded": 7273,
      "Ġmaster": 7274,
      "Ġpens": 7275,
      "aying": 7276,
      "Ġgest": 7277,
      "Ġreun": 7278,
      "Ġroars": 7279,
      "Ġcosy": 7280,
      "ÅĵWell": 7281,
      "ĠJaney": 7282,
      "Ġmagician": 7283,
      "Ġsteady": 7284,
      "Ġperformed": 7285,
      "Ġtables": 7286,
      "Steve": 7287,
      "Ġbells": 7288,
      "Ġcoop": 7289,
      "Ġfishes": 7290,
      "Ġpresses": 7291,
      "Ġsqueak": 7292,
      "Ġfirefly": 7293,
      "ĠLouise": 7294,
      "Ġreflection": 7295,
      "Ġdefinitely": 7296,
      "Ġwag": 7297,
      "ĠTake": 7298,
      "ĠSc": 7299,
      "imon": 7300,
      "cky": 7301,
      "sty": 7302,
      "Ġplaytime": 7303,
      "idey": 7304,
      "ĠWally": 7305,
      "Ġsled": 7306,
      "Ġraces": 7307,
      "Ġsending": 7308,
      "Ġmesmerized": 7309,
      "Ġencouraging": 7310,
      "Miss": 7311,
      "Oops": 7312,
      "hew": 7313,
      "Ġcertain": 7314,
      "Ġdip": 7315,
      "Ġgears": 7316,
      "ening": 7317,
      "anwhile": 7318,
      "lle": 7319,
      "Ġshown": 7320,
      "Ġscen": 7321,
      "ĠElly": 7322,
      "Ġbravest": 7323,
      "Whenever": 7324,
      "Ġcolder": 7325,
      "ounce": 7326,
      "attered": 7327,
      "Ġloading": 7328,
      "Ġburying": 7329,
      "ĠBirdy": 7330,
      "Ġslammed": 7331,
      "Ġechoed": 7332,
      "Ġwarrior": 7333,
      "espite": 7334,
      "Ġfant": 7335,
      "Ġhen": 7336,
      "onse": 7337,
      "onna": 7338,
      "Ġinj": 7339,
      "Ġease": 7340,
      "Ġund": 7341,
      "Ġplayroom": 7342,
      "ugs": 7343,
      "Ġcharge": 7344,
      "roken": 7345,
      "ĠFuzzy": 7346,
      "Ġslips": 7347,
      "otten": 7348,
      "Ġfits": 7349,
      "Ġresponse": 7350,
      "ĠStay": 7351,
      "Ġnecklaces": 7352,
      "Ġdesigns": 7353,
      "Ġpreparing": 7354,
      "Ġefforts": 7355,
      "Ġpupils": 7356,
      "Ġtravelling": 7357,
      "Frank": 7358,
      "Ġoccas": 7359,
      "Ġfantastic": 7360,
      "Like": 7361,
      "Ġtossed": 7362,
      "Ġgonna": 7363,
      "elvet": 7364,
      "Ġbraver": 7365,
      "Ġmonths": 7366,
      "Ġlessons": 7367,
      "ĠKelly": 7368,
      "Ġbaths": 7369,
      "Ġstands": 7370,
      "Ġbaskets": 7371,
      "Ġlifts": 7372,
      "Ġpuzzled": 7373,
      "ĠAlthough": 7374,
      "Ġpays": 7375,
      "Ġawo": 7376,
      "Ġsuits": 7377,
      "Ġgrandd": 7378,
      "Ġstacked": 7379,
      "Ġresults": 7380,
      "Ġpunishment": 7381,
      "Ġleapt": 7382,
      "ĠAshley": 7383,
      "Ġgrandparents": 7384,
      "Ġmate": 7385,
      "Ġpours": 7386,
      "Ġnapping": 7387,
      "Ġnuzz": 7388,
      "onies": 7389,
      "lets": 7390,
      "Ġev": 7391,
      "Ġearn": 7392,
      "Ġrotten": 7393,
      "rian": 7394,
      "chy": 7395,
      "Ġaside": 7396,
      "ĠWell": 7397,
      "Ġchanging": 7398,
      "Ġrainy": 7399,
      "Ġduckling": 7400,
      "ĠThatÃ¢": 7401,
      "Ġantic": 7402,
      "ĠUnder": 7403,
      "Ġhumans": 7404,
      "Ġlending": 7405,
      "Ġlicking": 7406,
      "ĠQuick": 7407,
      "Car": 7408,
      "Very": 7409,
      "found": 7410,
      "Ġstitches": 7411,
      "Ġbelts": 7412,
      "Ġtablet": 7413,
      "Ġdrivers": 7414,
      "Ġaction": 7415,
      "Ġnervously": 7416,
      "Ġfrowning": 7417,
      "Ġstreamers": 7418,
      "Ġcampfire": 7419,
      "Ġtwinkled": 7420,
      "Ġsewed": 7421,
      "Ġdespite": 7422,
      "Ġ10": 7423,
      "Ġrobber": 7424,
      "Ġconnected": 7425,
      "Ġarranged": 7426,
      "Ġconflict": 7427,
      "Rachel": 7428,
      "mates": 7429,
      "ĠX": 7430,
      "rect": 7431,
      "Ġponies": 7432,
      "ĠSw": 7433,
      "Ġelf": 7434,
      "unity": 7435,
      "ĠMabel": 7436,
      "fus": 7437,
      "nap": 7438,
      "Ġtapped": 7439,
      "Ġwaterfall": 7440,
      "Ġwobble": 7441,
      "Ġwrigg": 7442,
      "Ġpolar": 7443,
      "meal": 7444,
      "Ġpennies": 7445,
      "Ġtidied": 7446,
      "Ġpanicked": 7447,
      "Ġwhispers": 7448,
      "ĠUp": 7449,
      "ĠFinn": 7450,
      "Ġoatmeal": 7451,
      "Ġcorrect": 7452,
      "Tony": 7453,
      "now": 7454,
      "Ġ2": 7455,
      "Ġcongratul": 7456,
      "ĠHolly": 7457,
      "utter": 7458,
      "adie": 7459,
      "ĠSpidey": 7460,
      "Ġwarmer": 7461,
      "Ġblocked": 7462,
      "Ġpolitely": 7463,
      "Ġmailed": 7464,
      "Ġbattle": 7465,
      "ĠStitch": 7466,
      "Ġappreciated": 7467,
      "Ġwhispering": 7468,
      "Ġflavors": 7469,
      "Ġbehavior": 7470,
      "Ġreunited": 7471,
      "Bill": 7472,
      "bage": 7473,
      "bird": 7474,
      "Ġwoof": 7475,
      "innie": 7476,
      "Ġnewfound": 7477,
      "Ġwhose": 7478,
      "ĠDr": 7479,
      "Ġovercome": 7480,
      "Ġsurprising": 7481,
      "Ġtoward": 7482,
      "Ġforests": 7483,
      "Ġcollap": 7484,
      "Ġgarbage": 7485,
      "Ġleads": 7486,
      "Ġotters": 7487,
      "Ġreversed": 7488,
      "rrr": 7489,
      "ĠGranny": 7490,
      "Ġmasterp": 7491,
      "Jamie": 7492,
      "broken": 7493,
      "eedy": 7494,
      "munk": 7495,
      "sers": 7496,
      "Ġtying": 7497,
      "erm": 7498,
      "Ġnur": 7499,
      "ooking": 7500,
      "ighing": 7501,
      "ĠBee": 7502,
      "Ġbru": 7503,
      "Ġprob": 7504,
      "ection": 7505,
      "Ġcleaner": 7506,
      "ĠPr": 7507,
      "Ġdisob": 7508,
      "Ġsweetest": 7509,
      "Ġcalmly": 7510,
      "Ġdriveway": 7511,
      "Ġmaterial": 7512,
      "Ġcottage": 7513,
      "Ġevil": 7514,
      "Ġprobably": 7515,
      "Our": 7516,
      "Since": 7517,
      "Ġsou": 7518,
      "Ġwakes": 7519,
      "Ġpins": 7520,
      "ĠSmo": 7521,
      "ppies": 7522,
      "ĠthatÃ¢": 7523,
      "ĠLove": 7524,
      "Ġsnort": 7525,
      "Ġteles": 7526,
      "ÅĵOf": 7527,
      "Ġstopping": 7528,
      "Ġrains": 7529,
      "Ġbits": 7530,
      "ĠKaren": 7531,
      "Ġdistract": 7532,
      "ounced": 7533,
      "Ġpops": 7534,
      "Ġlaying": 7535,
      "Ġluckily": 7536,
      "Ġscurry": 7537,
      "ĠElsa": 7538,
      "ĠPippin": 7539,
      "Ġmerma": 7540,
      "Follow": 7541,
      "ĠSqueaky": 7542,
      "Ġawoke": 7543,
      "Ġtelescope": 7544,
      "?!\"": 7545,
      "Ros": 7546,
      "crow": 7547,
      "whe": 7548,
      "Ġheight": 7549,
      "veral": 7550,
      "ading": 7551,
      "Ġseveral": 7552,
      "Ġspook": 7553,
      "ĠFire": 7554,
      "Ġwatering": 7555,
      "Ġoffic": 7556,
      "Ġbeautifully": 7557,
      "ÅĵThe": 7558,
      "ĠPet": 7559,
      "Ġbelieving": 7560,
      "Ġaddress": 7561,
      "Ġrisks": 7562,
      "Ġanticip": 7563,
      "mered": 7564,
      "Ġtiss": 7565,
      "Ġlent": 7566,
      "Ġmaker": 7567,
      "ĠMichael": 7568,
      "ÅĵMom": 7569,
      "Ġconqu": 7570,
      "Ġunderstands": 7571,
      "ĠKiki": 7572,
      "Ġsparks": 7573,
      "Ġcloudy": 7574,
      "Ġplanting": 7575,
      "ĠOnly": 7576,
      "Ġscram": 7577,
      "Ġseller": 7578,
      "ĠDavey": 7579,
      "Ġtravels": 7580,
      "Ġartwork": 7581,
      "Ġcobwebs": 7582,
      "ĠMeg": 7583,
      "Ġseashells": 7584,
      "Ġconversation": 7585,
      "Ġspooky": 7586,
      "cher": 7587,
      "upt": 7588,
      "wise": 7589,
      "worm": 7590,
      "Ġgap": 7591,
      "Ġsoaking": 7592,
      "ĠgirlÃ¢": 7593,
      "Ġcoach": 7594,
      "ĠLaura": 7595,
      "Ġposit": 7596,
      "Ġthoughts": 7597,
      "Ġslither": 7598,
      "Ġuntie": 7599,
      "Ġtricycle": 7600,
      "Ġworrying": 7601,
      "Ġcraft": 7602,
      "Ġgrows": 7603,
      "Ġvegg": 7604,
      "Ġheartbroken": 7605,
      "Ġmints": 7606,
      "ĠAlong": 7607,
      "Ġtires": 7608,
      "Ġoysters": 7609,
      "azing": 7610,
      "Ġloops": 7611,
      "Ġinsisting": 7612,
      "Ġrotting": 7613,
      "Ġadmiration": 7614,
      "Ġbrushing": 7615,
      "Ġcongratulated": 7616,
      "Abigail": 7617,
      "Beth": 7618,
      "Penny": 7619,
      "aven": 7620,
      "cent": 7621,
      "Ġtar": 7622,
      "Ġaim": 7623,
      "Ġsill": 7624,
      "ĠTry": 7625,
      "idence": 7626,
      "Ġni": 7627,
      "rier": 7628,
      "Ġshady": 7629,
      "Ġanger": 7630,
      "Ġpoppies": 7631,
      "bbling": 7632,
      "ĠJojo": 7633,
      "ÅĵOkay": 7634,
      "ÅĵWhere": 7635,
      "Ġbusiness": 7636,
      "Ġfills": 7637,
      "Ġtighter": 7638,
      "Ġsniffs": 7639,
      "Ġpermitted": 7640,
      "Ġpurr": 7641,
      "Ġdiscussing": 7642,
      "Ġresponsib": 7643,
      "Ġdamaged": 7644,
      "Ġforgiving": 7645,
      "Ġchipmunk": 7646,
      "Ġconduct": 7647,
      "Surprise": 7648,
      "Ġmasterpiece": 7649,
      "Ġanticipation": 7650,
      "Adam": 7651,
      "Mad": 7652,
      "isions": 7653,
      "anie": 7654,
      "Ġshoo": 7655,
      "Ġreapp": 7656,
      "Ġexcept": 7657,
      "Ġmemb": 7658,
      "âĤ¬,": 7659,
      "ĠLena": 7660,
      "Ġgoodby": 7661,
      "Ġdoorway": 7662,
      "ĠGary": 7663,
      "Ġbiting": 7664,
      "Ġbelongings": 7665,
      "Ġsurv": 7666,
      "Ġchocolates": 7667,
      "Ġapologised": 7668,
      "Ġdiamonds": 7669,
      "Ġrepeating": 7670,
      "Ġbreathing": 7671,
      "Ġtubes": 7672,
      "ĠVelvet": 7673,
      "Ġpuppet": 7674,
      "citedly": 7675,
      "ĠAngel": 7676,
      "Ġtrotted": 7677,
      "eeling": 7678,
      "Ġveggies": 7679,
      "Ġmembers": 7680,
      "bi": 7681,
      "sm": 7682,
      "Ġmood": 7683,
      "ammy": 7684,
      "ĠIm": 7685,
      "elie": 7686,
      "ĠBow": 7687,
      "Ġknots": 7688,
      "Ġalthough": 7689,
      "Ġflips": 7690,
      "Ġqui": 7691,
      "asty": 7692,
      "Ġcounts": 7693,
      "Ġreminding": 7694,
      "Ġwisely": 7695,
      "Ġcovering": 7696,
      "Ġsniffing": 7697,
      "ĠPatty": 7698,
      "Ġspells": 7699,
      "Ġsqueaked": 7700,
      "Ġvehicles": 7701,
      "Ġsewing": 7702,
      "Ġaccomplished": 7703,
      "ĠMartha": 7704,
      "Ġcowboy": 7705,
      "Ġrefuse": 7706,
      "Ġcocoon": 7707,
      "Ġscrambled": 7708,
      "Ġconductor": 7709,
      "Ġgoodbyes": 7710,
      "pes": 7711,
      "please": 7712,
      "rup": 7713,
      "vant": 7714,
      "Ġdot": 7715,
      "Ġpound": 7716,
      "isc": 7717,
      "ĠSplash": 7718,
      "ĠHallow": 7719,
      "ĠHelen": 7720,
      "Ġyel": 7721,
      "Ġstumble": 7722,
      "ĠWendy": 7723,
      "Ġdecisions": 7724,
      "Ġblinking": 7725,
      "Ġcleared": 7726,
      "ĠCle": 7727,
      "Ġfins": 7728,
      "Ġunw": 7729,
      "acy": 7730,
      "ĠRyan": 7731,
      "Ġsmelling": 7732,
      "Ġpackages": 7733,
      "ÅĵIf": 7734,
      "ĠStar": 7735,
      "Ġpleaded": 7736,
      "Ġtrusting": 7737,
      "undred": 7738,
      "ĠFreddie": 7739,
      "Ġpigeons": 7740,
      "Ġshovels": 7741,
      "manda": 7742,
      "Ġexercises": 7743,
      "Ġquarreling": 7744,
      "Ġpassports": 7745,
      "Ġwiggly": 7746,
      "ĠFroggy": 7747,
      "Ġmermaid": 7748,
      "Ġquieter": 7749,
      "ĠHalloween": 7750,
      "Hannah": 7751,
      "Mimi": 7752,
      "but": 7753,
      "dress": 7754,
      "line": 7755,
      "its": 7756,
      "Ġgerm": 7757,
      "Ġgazing": 7758,
      "ĠMag": 7759,
      "ĠAny": 7760,
      "ighting": 7761,
      "Ġflick": 7762,
      "Ġvines": 7763,
      "antha": 7764,
      "Ġslipping": 7765,
      "Ġhanding": 7766,
      "ĠPin": 7767,
      "Ġsquir": 7768,
      "ĠNana": 7769,
      "Ġhairdress": 7770,
      "Ġvisitor": 7771,
      "Ġteachers": 7772,
      "Ġimages": 7773,
      "Ġhonking": 7774,
      "Ġshrunk": 7775,
      "Ġsolving": 7776,
      "Ġprayers": 7777,
      "Ġfigures": 7778,
      "illiam": 7779,
      "Ġcuddles": 7780,
      "Ġpedaled": 7781,
      "...\"": 7782,
      "Ġannoyed": 7783,
      "Ġreassured": 7784,
      "Ġsyrup": 7785,
      "Ġgesture": 7786,
      "Ġtarget": 7787,
      "Ġyelped": 7788,
      "Listen": 7789,
      "father": 7790,
      "vroom": 7791,
      "rew": 7792,
      "Ġcoug": 7793,
      "Ġrin": 7794,
      "Ġlasers": 7795,
      "Ġdecl": 7796,
      "Ġgoodies": 7797,
      "Ġflip": 7798,
      "Ġthanking": 7799,
      "iona": 7800,
      "Ġjoked": 7801,
      "ilda": 7802,
      "ÅĵBut": 7803,
      "Ġdangers": 7804,
      "ĠGina": 7805,
      "ĠSpeedy": 7806,
      "Ġpaintbrush": 7807,
      "Ġbandages": 7808,
      "Ġgenerosity": 7809,
      "Ġsqueezing": 7810,
      "Ġdiscoveries": 7811,
      "ĠMikey": 7812,
      "Ġspeeding": 7813,
      "Ġdisturbing": 7814,
      "ĠSnowman": 7815,
      "Ġemerged": 7816,
      "belle": 7817,
      "Ġexperienced": 7818,
      "Je": 7819,
      "Ġtumbled": 7820,
      "Ġdump": 7821,
      "Ġnasty": 7822,
      "ĠSl": 7823,
      "str": 7824,
      "Ġspat": 7825,
      "inkle": 7826,
      "Ġuntied": 7827,
      "Ġconvin": 7828,
      "Ġwarmly": 7829,
      "ĠRain": 7830,
      "Ġafar": 7831,
      "ĠAli": 7832,
      "ĠZara": 7833,
      "Ġtwisting": 7834,
      "Ġbracelets": 7835,
      "Tweetie": 7836,
      "asmine": 7837,
      "Ġtype": 7838,
      "Ġinstruments": 7839,
      "Ġconcert": 7840,
      "steps": 7841,
      "Ġhairdresser": 7842,
      "Bet": 7843,
      "Joy": 7844,
      "cie": 7845,
      "da": 7846,
      "gain": 7847,
      "ware": 7848,
      "Ġties": 7849,
      "order": 7850,
      "Ġrays": 7851,
      "Ġweeds": 7852,
      "ĠBecause": 7853,
      "Ġscent": 7854,
      "Ġchilly": 7855,
      "ĠSofia": 7856,
      "Ġcheers": 7857,
      "ctric": 7858,
      "Ġstored": 7859,
      "acle": 7860,
      "Ġdressing": 7861,
      "Ġpresented": 7862,
      "Ġguessing": 7863,
      "Ġargum": 7864,
      "Ġscooters": 7865,
      "Ġsupported": 7866,
      "Ġstomp": 7867,
      "Ġincreasing": 7868,
      "Ġuniforms": 7869,
      "Ġsuffering": 7870,
      "intment": 7871,
      "ĠElsie": 7872,
      "Ġinspired": 7873,
      "Ġforgiveness": 7874,
      "Ġsnowflakes": 7875,
      "Ġnearest": 7876,
      "Ġaisle": 7877,
      "Ġnibbled": 7878,
      "Ġwrinkled": 7879,
      "Ġofficers": 7880,
      "Jess": 7881,
      "Mine": 7882,
      "mies": 7883,
      "pit": 7884,
      "Ġtipped": 7885,
      "ilities": 7886,
      "ĠHoney": 7887,
      "Ġrather": 7888,
      "Ġforce": 7889,
      "Ġflock": 7890,
      "ĠDin": 7891,
      "Ġtrans": 7892,
      "ÅĵHey": 7893,
      "ÅĵPlease": 7894,
      "Ġcons": 7895,
      "Ġunfortunately": 7896,
      "ĠNan": 7897,
      "ĠRay": 7898,
      "issa": 7899,
      "Ġjud": 7900,
      "Ġmarve": 7901,
      "Ġfoxes": 7902,
      "Ġbeeh": 7903,
      "Ġfootsteps": 7904,
      "Ġtoolbox": 7905,
      "Ġrobots": 7906,
      "ĠZoomy": 7907,
      "Ġangels": 7908,
      "Always": 7909,
      "Ġscarecrow": 7910,
      "Ġshorts": 7911,
      "Ġconfidence": 7912,
      "Ġdelayed": 7913,
      "ĠFrosty": 7914,
      "ĠClaus": 7915,
      "Ġswayed": 7916,
      "Ġseagulls": 7917,
      "Ġopport": 7918,
      "Ġoppos": 7919,
      "what": 7920,
      "Ġhundred": 7921,
      "ĠTiger": 7922,
      "ĠIzzy": 7923,
      "Ġwithin": 7924,
      "Ġmanners": 7925,
      "Ġtreated": 7926,
      "ÅĵGood": 7927,
      "Ġswimmer": 7928,
      "Ġcupcake": 7929,
      "ĠFlo": 7930,
      "ordinary": 7931,
      "ails": 7932,
      "ĠOther": 7933,
      "Ġhumming": 7934,
      "Ġfrowns": 7935,
      "Ġsharks": 7936,
      "Ġwealth": 7937,
      "Ġsweat": 7938,
      "Ġgrandson": 7939,
      "Ġgrandfather": 7940,
      "Chloe": 7941,
      "Ġstroke": 7942,
      "Anne": 7943,
      "Ġactivity": 7944,
      "Ġencouragement": 7945,
      "ĠChris": 7946,
      "Ġcotton": 7947,
      "Ġroutine": 7948,
      "Ġgranddaughter": 7949,
      "Ġtissue": 7950,
      "Each": 7951,
      "Ralph": 7952,
      "Watch": 7953,
      "even": 7954,
      "ibbit": 7955,
      "Ġting": 7956,
      "Ġtoss": 7957,
      "Ġsav": 7958,
      "Ġshall": 7959,
      "Ġjars": 7960,
      "artled": 7961,
      "Ġwhoever": 7962,
      "ĠLion": 7963,
      "Ġquilt": 7964,
      "Ġsquished": 7965,
      "Ġelectric": 7966,
      "Ġextraordinary": 7967,
      "Ġtoothbrush": 7968,
      "Ġsimply": 7969,
      "Ġspills": 7970,
      "Ġpeeled": 7971,
      "Ġresponded": 7972,
      "Ġmanager": 7973,
      "iscuit": 7974,
      "Ġopposite": 7975,
      "Am": 7976,
      "Bunny": 7977,
      "Out": 7978,
      "Rob": 7979,
      "Ted": 7980,
      "bank": 7981,
      "ilted": 7982,
      "Ġsmashed": 7983,
      "Ġjugg": 7984,
      "Ġexch": 7985,
      "Ġclues": 7986,
      "ĠElle": 7987,
      "Ġswo": 7988,
      "ĠFighting": 7989,
      "Ġtweet": 7990,
      "Ġjoins": 7991,
      "Ġwinding": 7992,
      "sol": 7993,
      "Ġtasting": 7994,
      "Ġdecoration": 7995,
      "Ġteams": 7996,
      "Meanwhile": 7997,
      "Ġsteering": 7998,
      "Ġcharacters": 7999,
      "Ġnuzzled": 8000,
      "Ġscurrying": 8001,
      "Karen": 8002,
      "Mat": 8003,
      "Take": 8004,
      "hil": 8005,
      "we": 8006,
      "Ġbou": 8007,
      "ĠTaking": 8008,
      "ats": 8009,
      "ĠSimon": 8010,
      "onnie": 8011,
      "Ġbeating": 8012,
      "lyn": 8013,
      "Ġsped": 8014,
      "ĠAva": 8015,
      "ĠWelcome": 8016,
      "quet": 8017,
      "Ġblond": 8018,
      "ĠDespite": 8019,
      "Ġtwenty": 8020,
      "Ġfond": 8021,
      "Ġgardens": 8022,
      "Ġraising": 8023,
      "Ġhardest": 8024,
      "ÅĵWho": 8025,
      "Ġdrown": 8026,
      "Ġdripping": 8027,
      "ugging": 8028,
      "Ġpurpose": 8029,
      "Ġprick": 8030,
      "Ġtentacles": 8031,
      "Ġaware": 8032,
      "Ġsweep": 8033,
      "Ġsweaty": 8034,
      "ĠDaniel": 8035,
      "Ġswaying": 8036,
      "Ġbeaming": 8037,
      "Ġcustomers": 8038,
      "Rosie": 8039,
      "Ġbeehive": 8040,
      "Ġswollen": 8041,
      "Any": 8042,
      "Get": 8043,
      "Tilly": 8044,
      "pen": 8045,
      "ĠOkay": 8046,
      "rest": 8047,
      "Ġgrip": 8048,
      "oration": 8049,
      "Ġramp": 8050,
      "Ġstall": 8051,
      "Ġrely": 8052,
      "Ġbirdhouse": 8053,
      "Ġflipped": 8054,
      "ortunately": 8055,
      "empt": 8056,
      "ĠJoanna": 8057,
      "bee": 8058,
      "ĠGinger": 8059,
      "Ġdisc": 8060,
      "Ġslowed": 8061,
      "spe": 8062,
      "Ġvisits": 8063,
      "Ġjobs": 8064,
      "Ġattempt": 8065,
      "Ġnests": 8066,
      "Ġstorms": 8067,
      "Ġreminds": 8068,
      "Ġmagnif": 8069,
      "Ġencount": 8070,
      "Ġstatues": 8071,
      "Ġmillion": 8072,
      "Ġrepairman": 8073,
      "Ġdisplayed": 8074,
      "Ġnovels": 8075,
      "Ġbothering": 8076,
      "ĠLibby": 8077,
      "Two": 8078,
      "Ġcollapsed": 8079,
      "Ġdeclared": 8080,
      "Ġtransf": 8081,
      "Ġbouquet": 8082,
      "Dear": 8083,
      "Mon": 8084,
      "emy": 8085,
      "oor": 8086,
      "Ġhoo": 8087,
      "Ġdep": 8088,
      "orter": 8089,
      "Ġyumm": 8090,
      "Ġsoot": 8091,
      "storm": 8092,
      "Ġform": 8093,
      "Ġshimmering": 8094,
      "Ġkings": 8095,
      "Ġloc": 8096,
      "Ġnodd": 8097,
      "Ġchanges": 8098,
      "Ġenemy": 8099,
      "Ġwaters": 8100,
      "Ġends": 8101,
      "Ġsnug": 8102,
      "Ġglob": 8103,
      "Ġnights": 8104,
      "ĠRu": 8105,
      "Ġcomforting": 8106,
      "Ġtidying": 8107,
      "Ġrelaxing": 8108,
      "Ġcrowns": 8109,
      "Ġclearly": 8110,
      "Ġquestioned": 8111,
      "Ġlipstick": 8112,
      "Ġmagazines": 8113,
      "Ġinchworm": 8114,
      "Ġflashing": 8115,
      "Ġgerms": 8116,
      "Ġconsid": 8117,
      "Ġglobe": 8118,
      "Boys": 8119,
      "uel": 8120,
      "Ġdarl": 8121,
      "atitude": 8122,
      "ances": 8123,
      "rie": 8124,
      "Ġlies": 8125,
      "ended": 8126,
      "ĠAbi": 8127,
      "romise": 8128,
      "Ġgratitude": 8129,
      "ĠPaula": 8130,
      "athy": 8131,
      "Ġguide": 8132,
      "Ġexpert": 8133,
      "Ġself": 8134,
      "Ġpizzas": 8135,
      "Beep": 8136,
      "Ġcamel": 8137,
      "Ġwindowsill": 8138,
      "Ġvibr": 8139,
      "Ġmosquitoes": 8140,
      "Ġmeowing": 8141,
      "Ġfocus": 8142,
      "ĠPippa": 8143,
      "Ġthorns": 8144,
      "ĠJoanne": 8145,
      "Ġargument": 8146,
      "Ġdarlings": 8147,
      "Cindy": 8148,
      "Too": 8149,
      "ae": 8150,
      "hind": 8151,
      "ulp": 8152,
      "Ġbitten": 8153,
      "Ġwasting": 8154,
      "Ġuna": 8155,
      "ppa": 8156,
      "ĠmomÃ¢": 8157,
      "ĠBrian": 8158,
      "Ġsculp": 8159,
      "ift": 8160,
      "ĠLooking": 8161,
      "Ġtearing": 8162,
      "ĠCurious": 8163,
      "ÅĵSee": 8164,
      "Ġdoorbell": 8165,
      "ĠSpring": 8166,
      "Ġmovements": 8167,
      "Ġriverbank": 8168,
      "Ġsmoking": 8169,
      "Ġpicnics": 8170,
      "ĠAlan": 8171,
      "Ġsoapy": 8172,
      "Ġturtles": 8173,
      "Ġenviron": 8174,
      "Ġbeeped": 8175,
      "Ġprevented": 8176,
      "Ġobeyed": 8177,
      "Ġglittering": 8178,
      "Ġclicked": 8179,
      "Ġattacked": 8180,
      "Ġexpression": 8181,
      "Julie": 8182,
      "Ġmunching": 8183,
      "Ġsadder": 8184,
      "Ġcorrectly": 8185,
      "Ġconvinced": 8186,
      "Ġenvironment": 8187,
      "Mira": 8188,
      "earing": 8189,
      "po": 8190,
      "Ġtumm": 8191
    },
    "merges": [
      [
        "h",
        "e"
      ],
      [
        "Ġ",
        "t"
      ],
      [
        "Ġ",
        "a"
      ],
      [
        "Ġ",
        "s"
      ],
      [
        "Ġ",
        "w"
      ],
      [
        "n",
        "d"
      ],
      [
        "Ġt",
        "he"
      ],
      [
        "e",
        "d"
      ],
      [
        "Ġa",
        "nd"
      ],
      [
        "Ġt",
        "o"
      ],
      [
        "Ġ",
        "b"
      ],
      [
        "i",
        "n"
      ],
      [
        "Ġ",
        "h"
      ],
      [
        "Ġw",
        "a"
      ],
      [
        "r",
        "e"
      ],
      [
        "Ġ",
        "f"
      ],
      [
        "o",
        "u"
      ],
      [
        "i",
        "t"
      ],
      [
        "Ġ",
        "l"
      ],
      [
        "Ġ",
        "c"
      ],
      [
        "e",
        "r"
      ],
      [
        "Ġ",
        "d"
      ],
      [
        "Ġ",
        "he"
      ],
      [
        "Ġwa",
        "s"
      ],
      [
        "Ġ",
        "m"
      ],
      [
        "Ġ",
        "p"
      ],
      [
        "o",
        "m"
      ],
      [
        "Ġ",
        "T"
      ],
      [
        "Ġ",
        "o"
      ],
      [
        "a",
        "y"
      ],
      [
        "a",
        "r"
      ],
      [
        "in",
        "g"
      ],
      [
        "i",
        "s"
      ],
      [
        "Ġ",
        "g"
      ],
      [
        "i",
        "l"
      ],
      [
        "i",
        "d"
      ],
      [
        "a",
        "t"
      ],
      [
        "e",
        "n"
      ],
      [
        "Ġ",
        "n"
      ],
      [
        "Ġs",
        "a"
      ],
      [
        "Ġh",
        "a"
      ],
      [
        "Ġ",
        "S"
      ],
      [
        "ĠT",
        "he"
      ],
      [
        "a",
        "n"
      ],
      [
        "i",
        "m"
      ],
      [
        "o",
        "r"
      ],
      [
        "o",
        "n"
      ],
      [
        "Ġ",
        "it"
      ],
      [
        "Ġt",
        "h"
      ],
      [
        "l",
        "l"
      ],
      [
        "l",
        "e"
      ],
      [
        "Ġ",
        "H"
      ],
      [
        "Ġhe",
        "r"
      ],
      [
        "e",
        "t"
      ],
      [
        "o",
        "t"
      ],
      [
        "i",
        "r"
      ],
      [
        "ĠS",
        "he"
      ],
      [
        "ĠH",
        "e"
      ],
      [
        "e",
        "s"
      ],
      [
        "v",
        "er"
      ],
      [
        "Ġ",
        "in"
      ],
      [
        "u",
        "t"
      ],
      [
        "o",
        "w"
      ],
      [
        "c",
        "k"
      ],
      [
        "Ġ",
        "e"
      ],
      [
        "ĠThe",
        "y"
      ],
      [
        "Ġ",
        "u"
      ],
      [
        "l",
        "d"
      ],
      [
        "o",
        "o"
      ],
      [
        "i",
        "g"
      ],
      [
        "Ġ",
        "y"
      ],
      [
        "Ġsa",
        "id"
      ],
      [
        "Ġ",
        "r"
      ],
      [
        "Ġb",
        "e"
      ],
      [
        "il",
        "y"
      ],
      [
        "a",
        "m"
      ],
      [
        "Ġs",
        "t"
      ],
      [
        "c",
        "e"
      ],
      [
        "Ġs",
        "he"
      ],
      [
        "Ġ",
        "\""
      ],
      [
        "p",
        "p"
      ],
      [
        "k",
        "e"
      ],
      [
        "Ġ",
        "I"
      ],
      [
        "it",
        "h"
      ],
      [
        "v",
        "e"
      ],
      [
        "O",
        "n"
      ],
      [
        "Ġw",
        "ith"
      ],
      [
        "Ġo",
        "f"
      ],
      [
        "L",
        "ily"
      ],
      [
        "Ġo",
        "n"
      ],
      [
        "Ġs",
        "o"
      ],
      [
        "k",
        "ed"
      ],
      [
        "r",
        "i"
      ],
      [
        "Ġh",
        "is"
      ],
      [
        "n",
        "t"
      ],
      [
        "Ġp",
        "l"
      ],
      [
        "ver",
        "y"
      ],
      [
        "Ġy",
        "ou"
      ],
      [
        "a",
        "d"
      ],
      [
        "Ġd",
        "ay"
      ],
      [
        "Ġth",
        "at"
      ],
      [
        "Ġu",
        "p"
      ],
      [
        "Ġha",
        "d"
      ],
      [
        "s",
        "t"
      ],
      [
        "Ġpl",
        "ay"
      ],
      [
        "Ġthe",
        "y"
      ],
      [
        "e",
        "l"
      ],
      [
        "Ġ",
        "Lily"
      ],
      [
        "Ġm",
        "om"
      ],
      [
        "Ġf",
        "or"
      ],
      [
        "Ġw",
        "e"
      ],
      [
        "ou",
        "ld"
      ],
      [
        "u",
        "n"
      ],
      [
        "m",
        "y"
      ],
      [
        "Ġ",
        "B"
      ],
      [
        "T",
        "he"
      ],
      [
        "'",
        "s"
      ],
      [
        "Ġha",
        "pp"
      ],
      [
        "en",
        "t"
      ],
      [
        "c",
        "h"
      ],
      [
        "it",
        "t"
      ],
      [
        "Ġl",
        "i"
      ],
      [
        "Ġwa",
        "nt"
      ],
      [
        "ou",
        "t"
      ],
      [
        "Ġs",
        "h"
      ],
      [
        "he",
        "r"
      ],
      [
        "l",
        "y"
      ],
      [
        "Ġ",
        "very"
      ],
      [
        "ou",
        "nd"
      ],
      [
        "im",
        "e"
      ],
      [
        "om",
        "e"
      ],
      [
        "s",
        "e"
      ],
      [
        "itt",
        "le"
      ],
      [
        "a",
        "ll"
      ],
      [
        "Ġd",
        "o"
      ],
      [
        "e",
        "nd"
      ],
      [
        "Ġt",
        "ime"
      ],
      [
        "Ġw",
        "h"
      ],
      [
        "Ġn",
        "ot"
      ],
      [
        "Ġl",
        "ittle"
      ],
      [
        "Ġthe",
        "re"
      ],
      [
        "Ġ",
        "k"
      ],
      [
        "a",
        "l"
      ],
      [
        "h",
        "t"
      ],
      [
        "Ġn",
        "e"
      ],
      [
        "Ġhapp",
        "y"
      ],
      [
        "Ġ",
        "re"
      ],
      [
        "Ġb",
        "ig"
      ],
      [
        "Ġ",
        "M"
      ],
      [
        "Ġ",
        "Ċ"
      ],
      [
        "Ġs",
        "m"
      ],
      [
        "Ġb",
        "ut"
      ],
      [
        "ĠI",
        "t"
      ],
      [
        "a",
        "ck"
      ],
      [
        "Ġsa",
        "w"
      ],
      [
        "Ġa",
        "n"
      ],
      [
        "ri",
        "end"
      ],
      [
        "Ġf",
        "riend"
      ],
      [
        "Ġ",
        "is"
      ],
      [
        "r",
        "a"
      ],
      [
        "Ġa",
        "s"
      ],
      [
        "r",
        "y"
      ],
      [
        "On",
        "e"
      ],
      [
        "id",
        "e"
      ],
      [
        ".",
        "\""
      ],
      [
        "a",
        "ke"
      ],
      [
        "'",
        "t"
      ],
      [
        "v",
        "ed"
      ],
      [
        "On",
        "ce"
      ],
      [
        "u",
        "g"
      ],
      [
        "t",
        "er"
      ],
      [
        "Ġl",
        "oo"
      ],
      [
        "Ġwe",
        "re"
      ],
      [
        "o",
        "re"
      ],
      [
        "e",
        "c"
      ],
      [
        "Ġl",
        "o"
      ],
      [
        "!",
        "\""
      ],
      [
        "Ġh",
        "im"
      ],
      [
        "Ġb",
        "o"
      ],
      [
        "Ġto",
        "o"
      ],
      [
        "Ġg",
        "o"
      ],
      [
        "ir",
        "l"
      ],
      [
        "Ġs",
        "e"
      ],
      [
        "ĠT",
        "im"
      ],
      [
        "Ġup",
        "on"
      ],
      [
        "Ġg",
        "irl"
      ],
      [
        "Ġwant",
        "ed"
      ],
      [
        "Ġ",
        "j"
      ],
      [
        "ar",
        "d"
      ],
      [
        "il",
        "l"
      ],
      [
        "Ġ",
        "out"
      ],
      [
        "Ġs",
        "p"
      ],
      [
        "w",
        "ay"
      ],
      [
        "Ġthe",
        "m"
      ],
      [
        "f",
        "u"
      ],
      [
        "Ġa",
        "t"
      ],
      [
        "Ġc",
        "ould"
      ],
      [
        "i",
        "nd"
      ],
      [
        "u",
        "r"
      ],
      [
        "Ġa",
        "re"
      ],
      [
        "he",
        "n"
      ],
      [
        "Ġ",
        "A"
      ],
      [
        "Ġd",
        "id"
      ],
      [
        "Ġthe",
        "ir"
      ],
      [
        "Ġsm",
        "il"
      ],
      [
        "a",
        "in"
      ],
      [
        "Ġe",
        "x"
      ],
      [
        "he",
        "d"
      ],
      [
        "ar",
        "t"
      ],
      [
        "Ġha",
        "ve"
      ],
      [
        "Ġw",
        "ent"
      ],
      [
        "Ġa",
        "r"
      ],
      [
        "r",
        "om"
      ],
      [
        "i",
        "c"
      ],
      [
        "Ġ",
        "J"
      ],
      [
        "h",
        "ing"
      ],
      [
        "fu",
        "l"
      ],
      [
        "Ġa",
        "ll"
      ],
      [
        "l",
        "p"
      ],
      [
        "Ġn",
        "am"
      ],
      [
        "Ġfriend",
        "s"
      ],
      [
        "ig",
        "ht"
      ],
      [
        "Ġk",
        "n"
      ],
      [
        "Ġc",
        "an"
      ],
      [
        "oo",
        "d"
      ],
      [
        "Ġhe",
        "lp"
      ],
      [
        "u",
        "m"
      ],
      [
        "on",
        "e"
      ],
      [
        "ar",
        "k"
      ],
      [
        "Ġb",
        "ack"
      ],
      [
        "ĠB",
        "en"
      ],
      [
        "?",
        "\""
      ],
      [
        "Ġc",
        "l"
      ],
      [
        "Ġf",
        "un"
      ],
      [
        "a",
        "re"
      ],
      [
        "Ġl",
        "e"
      ],
      [
        "Ġn",
        "o"
      ],
      [
        "Ġnam",
        "ed"
      ],
      [
        "Ġs",
        "ay"
      ],
      [
        "ĠT",
        "om"
      ],
      [
        "Ġs",
        "c"
      ],
      [
        "ou",
        "g"
      ],
      [
        "Ġlo",
        "ved"
      ],
      [
        "o",
        "p"
      ],
      [
        "Ġa",
        "l"
      ],
      [
        "Y",
        "ou"
      ],
      [
        "el",
        "t"
      ],
      [
        "s",
        "ide"
      ],
      [
        "Ġ",
        "One"
      ],
      [
        "Ġsmil",
        "ed"
      ],
      [
        "i",
        "ck"
      ],
      [
        "Ġf",
        "elt"
      ],
      [
        "Ġm",
        "an"
      ],
      [
        "Ġar",
        "ound"
      ],
      [
        "Ġas",
        "ked"
      ],
      [
        "Ġf",
        "e"
      ],
      [
        "Ġto",
        "y"
      ],
      [
        "ĠTim",
        "my"
      ],
      [
        "am",
        "e"
      ],
      [
        "Ġloo",
        "ked"
      ],
      [
        "om",
        "et"
      ],
      [
        "Ġli",
        "ke"
      ],
      [
        "Ġs",
        "ome"
      ],
      [
        "Ġse",
        "e"
      ],
      [
        "u",
        "re"
      ],
      [
        "Ġr",
        "o"
      ],
      [
        "Ġw",
        "ould"
      ],
      [
        "Ġbo",
        "y"
      ],
      [
        "Ġb",
        "r"
      ],
      [
        "g",
        "et"
      ],
      [
        "Ġb",
        "ir"
      ],
      [
        "Ġ",
        "W"
      ],
      [
        "Ġm",
        "e"
      ],
      [
        "Ġst",
        "art"
      ],
      [
        "on",
        "g"
      ],
      [
        "i",
        "ce"
      ],
      [
        "Ġs",
        "omet"
      ],
      [
        "s",
        "s"
      ],
      [
        "Ġbir",
        "d"
      ],
      [
        "ad",
        "e"
      ],
      [
        "Ġf",
        "a"
      ],
      [
        "Ġw",
        "or"
      ],
      [
        "Ġa",
        "g"
      ],
      [
        "ing",
        "s"
      ],
      [
        "d",
        "d"
      ],
      [
        "k",
        "ing"
      ],
      [
        "Ġwh",
        "at"
      ],
      [
        "Ġt",
        "re"
      ],
      [
        "Ã",
        "¢"
      ],
      [
        "â",
        "Ĥ"
      ],
      [
        "âĤ",
        "¬"
      ],
      [
        "get",
        "her"
      ],
      [
        "Ġa",
        "way"
      ],
      [
        "ow",
        "n"
      ],
      [
        "Ġm",
        "ake"
      ],
      [
        "Ġstart",
        "ed"
      ],
      [
        "ĠB",
        "ut"
      ],
      [
        "i",
        "e"
      ],
      [
        "Ġr",
        "an"
      ],
      [
        "a",
        "g"
      ],
      [
        "ar",
        "ed"
      ],
      [
        "ou",
        "d"
      ],
      [
        "Ġm",
        "ade"
      ],
      [
        "Ġsomet",
        "hing"
      ],
      [
        "it",
        "ed"
      ],
      [
        "i",
        "f"
      ],
      [
        "Ġto",
        "gether"
      ],
      [
        ",",
        "\""
      ],
      [
        "Ġc",
        "o"
      ],
      [
        "Ġp",
        "ark"
      ],
      [
        "t",
        "her"
      ],
      [
        "Ġex",
        "c"
      ],
      [
        "Ġc",
        "ar"
      ],
      [
        "Ġ",
        "You"
      ],
      [
        "Ġsa",
        "d"
      ],
      [
        "Ġo",
        "ther"
      ],
      [
        "Ġf",
        "rom"
      ],
      [
        "Ġp",
        "ut"
      ],
      [
        "Ġne",
        "w"
      ],
      [
        "b",
        "le"
      ],
      [
        "Ġp",
        "r"
      ],
      [
        "Ġsay",
        "s"
      ],
      [
        "Ġl",
        "a"
      ],
      [
        "Ġh",
        "ome"
      ],
      [
        "Ġag",
        "ain"
      ],
      [
        "Ġm",
        "u"
      ],
      [
        "Ġw",
        "hen"
      ],
      [
        "Ġh",
        "ug"
      ],
      [
        "e",
        "ll"
      ],
      [
        "Ġthe",
        "n"
      ],
      [
        "Ġd",
        "ec"
      ],
      [
        "Ġwh",
        "o"
      ],
      [
        "es",
        "t"
      ],
      [
        "e",
        "p"
      ],
      [
        "Ġ",
        "L"
      ],
      [
        "Ġf",
        "ound"
      ],
      [
        "a",
        "ch"
      ],
      [
        "ri",
        "ed"
      ],
      [
        "pp",
        "ed"
      ],
      [
        "Ġc",
        "h"
      ],
      [
        "Ġg",
        "ood"
      ],
      [
        "oo",
        "k"
      ],
      [
        "Ġf",
        "l"
      ],
      [
        "Ġ",
        "E"
      ],
      [
        "a",
        "s"
      ],
      [
        "Ġwa",
        "l"
      ],
      [
        "q",
        "u"
      ],
      [
        "Ġg",
        "et"
      ],
      [
        "oug",
        "ht"
      ],
      [
        "all",
        "y"
      ],
      [
        "Ġplay",
        "ing"
      ],
      [
        "p",
        "l"
      ],
      [
        "Ġexc",
        "ited"
      ],
      [
        "Ġs",
        "w"
      ],
      [
        "Ġth",
        "ings"
      ],
      [
        "h",
        "at"
      ],
      [
        "Ġg",
        "ot"
      ],
      [
        "ou",
        "s"
      ],
      [
        "id",
        "ed"
      ],
      [
        "Ġdec",
        "ided"
      ],
      [
        "u",
        "ck"
      ],
      [
        "Ġe",
        "very"
      ],
      [
        "Ġli",
        "ked"
      ],
      [
        "r",
        "o"
      ],
      [
        "a",
        "ve"
      ],
      [
        "Ġc",
        "ame"
      ],
      [
        "n",
        "y"
      ],
      [
        "Ġb",
        "l"
      ],
      [
        "a",
        "x"
      ],
      [
        "Ġon",
        "e"
      ],
      [
        "Ġd",
        "own"
      ],
      [
        "Ġbe",
        "c"
      ],
      [
        "Ġsc",
        "ared"
      ],
      [
        "ou",
        "se"
      ],
      [
        "u",
        "st"
      ],
      [
        "Ġ",
        "v"
      ],
      [
        "Ġf",
        "ind"
      ],
      [
        "Ġth",
        "an"
      ],
      [
        "n",
        "a"
      ],
      [
        "Ġc",
        "are"
      ],
      [
        "Ġfe",
        "el"
      ],
      [
        "Ġyou",
        "r"
      ],
      [
        "Ġ",
        "D"
      ],
      [
        "ar",
        "a"
      ],
      [
        "u",
        "dd"
      ],
      [
        "is",
        "t"
      ],
      [
        "Ġdo",
        "g"
      ],
      [
        "Ġa",
        "b"
      ],
      [
        "Ġd",
        "ad"
      ],
      [
        "way",
        "s"
      ],
      [
        "Ġ",
        "ke"
      ],
      [
        "ĠM",
        "om"
      ],
      [
        "Ġdid",
        "n"
      ],
      [
        "Ġal",
        "ways"
      ],
      [
        "u",
        "e"
      ],
      [
        "Ġg",
        "ra"
      ],
      [
        "a",
        "p"
      ],
      [
        "Ġg",
        "r"
      ],
      [
        "ar",
        "n"
      ],
      [
        "f",
        "e"
      ],
      [
        "u",
        "s"
      ],
      [
        "Ġmom",
        "my"
      ],
      [
        "Ġtoo",
        "k"
      ],
      [
        "ou",
        "r"
      ],
      [
        "Ġ",
        "F"
      ],
      [
        "Ġl",
        "ot"
      ],
      [
        "es",
        "s"
      ],
      [
        "Ġkn",
        "e"
      ],
      [
        "an",
        "t"
      ],
      [
        "er",
        "s"
      ],
      [
        "Ġab",
        "out"
      ],
      [
        "ec",
        "i"
      ],
      [
        "nd",
        "er"
      ],
      [
        "Ġp",
        "o"
      ],
      [
        "The",
        "y"
      ],
      [
        "Ġm",
        "y"
      ],
      [
        "Ġloo",
        "k"
      ],
      [
        "Ġout",
        "side"
      ],
      [
        "b",
        "b"
      ],
      [
        "Ġtre",
        "e"
      ],
      [
        "n",
        "na"
      ],
      [
        "c",
        "hed"
      ],
      [
        "Ġw",
        "ill"
      ],
      [
        "Ġth",
        "ought"
      ],
      [
        "is",
        "e"
      ],
      [
        "en",
        "ed"
      ],
      [
        "Ġb",
        "all"
      ],
      [
        "Ġtoy",
        "s"
      ],
      [
        "it",
        "e"
      ],
      [
        "ĠS",
        "am"
      ],
      [
        "Ġin",
        "t"
      ],
      [
        "eci",
        "al"
      ],
      [
        "Ġsp",
        "ecial"
      ],
      [
        "Ġo",
        "ld"
      ],
      [
        "Ġt",
        "a"
      ],
      [
        "Ġm",
        "ore"
      ],
      [
        "Ġle",
        "arn"
      ],
      [
        "Ġkn",
        "ow"
      ],
      [
        "re",
        "t"
      ],
      [
        "Ġh",
        "o"
      ],
      [
        "Ġkne",
        "w"
      ],
      [
        "Ġt",
        "ake"
      ],
      [
        "g",
        "ed"
      ],
      [
        "Ġla",
        "ug"
      ],
      [
        "udd",
        "en"
      ],
      [
        "Ġp",
        "e"
      ],
      [
        "f",
        "ter"
      ],
      [
        "ĠM",
        "ax"
      ],
      [
        "Ġc",
        "at"
      ],
      [
        "i",
        "ve"
      ],
      [
        "Ġan",
        "y"
      ],
      [
        "udden",
        "ly"
      ],
      [
        "Ġh",
        "ow"
      ],
      [
        "Ġt",
        "r"
      ],
      [
        "m",
        "a"
      ],
      [
        "a",
        "u"
      ],
      [
        "Ġs",
        "or"
      ],
      [
        "Ġmu",
        "ch"
      ],
      [
        "Ġsh",
        "ow"
      ],
      [
        "i",
        "a"
      ],
      [
        "Ġt",
        "w"
      ],
      [
        "is",
        "h"
      ],
      [
        "v",
        "en"
      ],
      [
        "Ġs",
        "l"
      ],
      [
        "Ġh",
        "ouse"
      ],
      [
        "B",
        "ut"
      ],
      [
        "a",
        "nd"
      ],
      [
        "in",
        "k"
      ],
      [
        "Ġs",
        "k"
      ],
      [
        "Ġr",
        "un"
      ],
      [
        "Ġm",
        "o"
      ],
      [
        "Ġo",
        "p"
      ],
      [
        "Ġint",
        "o"
      ],
      [
        "Ġs",
        "un"
      ],
      [
        "ĠE",
        "very"
      ],
      [
        "Ġcl",
        "o"
      ],
      [
        "Ġt",
        "ried"
      ],
      [
        "Ġha",
        "nd"
      ],
      [
        "Ġin",
        "side"
      ],
      [
        "Ġcould",
        "n"
      ],
      [
        "Ġto",
        "ld"
      ],
      [
        "Ġpr",
        "oud"
      ],
      [
        "Ġ",
        "en"
      ],
      [
        "Ġ",
        "qu"
      ],
      [
        "Ġne",
        "ver"
      ],
      [
        "Ġsor",
        "ry"
      ],
      [
        "Ġg",
        "ave"
      ],
      [
        "Ġwa",
        "ter"
      ],
      [
        "Ġo",
        "r"
      ],
      [
        "Ġo",
        "ver"
      ],
      [
        "um",
        "p"
      ],
      [
        "at",
        "e"
      ],
      [
        "au",
        "se"
      ],
      [
        "Ġ",
        "if"
      ],
      [
        "a",
        "ce"
      ],
      [
        "b",
        "y"
      ],
      [
        "Ġex",
        "pl"
      ],
      [
        "Ġhe",
        "ard"
      ],
      [
        "an",
        "k"
      ],
      [
        "Ġe",
        "at"
      ],
      [
        "t",
        "y"
      ],
      [
        "ot",
        "her"
      ],
      [
        "i",
        "on"
      ],
      [
[...]
